{
  "version": "1.0",
  "truncation": null,
  "padding": null,
  "added_tokens": [
    {
      "id": 0,
      "content": "[UNK]",
      "single_word": false,
      "lstrip": false,
      "rstrip": false,
      "normalized": false,
      "special": true
    },
    {
      "id": 1,
      "content": "[CLS]",
      "single_word": false,
      "lstrip": false,
      "rstrip": false,
      "normalized": false,
      "special": true
    },
    {
      "id": 2,
      "content": "[SEP]",
      "single_word": false,
      "lstrip": false,
      "rstrip": false,
      "normalized": false,
      "special": true
    },
    {
      "id": 3,
      "content": "[PAD]",
      "single_word": false,
      "lstrip": false,
      "rstrip": false,
      "normalized": false,
      "special": true
    },
    {
      "id": 4,
      "content": "[MASK]",
      "single_word": false,
      "lstrip": false,
      "rstrip": false,
      "normalized": false,
      "special": true
    }
  ],
  "normalizer": {
    "type": "Sequence",
    "normalizers": [
      {
        "type": "NFKD"
      },
      {
        "type": "Lowercase"
      },
      {
        "type": "StripAccents"
      },
      {
        "type": "Replace",
        "pattern": {
          "String": "\n"
        },
        "content": " "
      },
      {
        "type": "Replace",
        "pattern": {
          "String": "\r"
        },
        "content": " "
      },
      {
        "type": "Replace",
        "pattern": {
          "String": "\t"
        },
        "content": " "
      },
      {
        "type": "Replace",
        "pattern": {
          "String": "''"
        },
        "content": " "
      }
    ]
  },
  "pre_tokenizer": {
    "type": "ByteLevel",
    "add_prefix_space": true,
    "trim_offsets": true,
    "use_regex": true
  },
  "post_processor": {
    "type": "ByteLevel",
    "add_prefix_space": true,
    "trim_offsets": true,
    "use_regex": true
  },
  "decoder": {
    "type": "ByteLevel",
    "add_prefix_space": true,
    "trim_offsets": true,
    "use_regex": true
  },
  "model": {
    "type": "BPE",
    "dropout": null,
    "unk_token": null,
    "continuing_subword_prefix": null,
    "end_of_word_suffix": null,
    "fuse_unk": false,
    "byte_fallback": false,
    "ignore_merges": false,
    "vocab": {
      "[UNK]": 0,
      "[CLS]": 1,
      "[SEP]": 2,
      "[PAD]": 3,
      "[MASK]": 4,
      "!": 5,
      "\"": 6,
      "#": 7,
      "$": 8,
      "%": 9,
      "&": 10,
      "'": 11,
      "(": 12,
      ")": 13,
      "*": 14,
      ",": 15,
      "-": 16,
      ".": 17,
      "/": 18,
      "0": 19,
      "1": 20,
      "2": 21,
      "3": 22,
      "4": 23,
      "5": 24,
      "6": 25,
      "7": 26,
      "8": 27,
      "9": 28,
      ":": 29,
      ";": 30,
      "?": 31,
      "[": 32,
      "]": 33,
      "`": 34,
      "a": 35,
      "b": 36,
      "c": 37,
      "d": 38,
      "e": 39,
      "f": 40,
      "g": 41,
      "h": 42,
      "i": 43,
      "j": 44,
      "k": 45,
      "l": 46,
      "m": 47,
      "n": 48,
      "o": 49,
      "p": 50,
      "q": 51,
      "r": 52,
      "s": 53,
      "t": 54,
      "u": 55,
      "v": 56,
      "w": 57,
      "x": 58,
      "y": 59,
      "z": 60,
      "{": 61,
      "}": 62,
      "¢": 63,
      "¤": 64,
      "©": 65,
      "®": 66,
      "°": 67,
      "µ": 68,
      "¶": 69,
      "Â": 70,
      "à": 71,
      "â": 72,
      "Ġ": 73,
      "Ģ": 74,
      "Ĩ": 75,
      "ĵ": 76,
      "Ķ": 77,
      "ĺ": 78,
      "Ļ": 79,
      "ľ": 80,
      "Ŀ": 81,
      "th": 82,
      "Ġth": 83,
      "Ġa": 84,
      "Ġthe": 85,
      "Ġo": 86,
      "in": 87,
      "Ġs": 88,
      "re": 89,
      "Ġw": 90,
      "nd": 91,
      "Ġb": 92,
      "Ġof": 93,
      "er": 94,
      "Ġh": 95,
      "at": 96,
      "is": 97,
      "ed": 98,
      "ing": 99,
      "Ġand": 100,
      "on": 101,
      "es": 102,
      "Ġf": 103,
      "en": 104,
      "Ġt": 105,
      "ou": 106,
      "Ġc": 107,
      "Ġm": 108,
      "ar": 109,
      "Ġd": 110,
      "an": 111,
      "Ġp": 112,
      "or": 113,
      "as": 114,
      "Ġin": 115,
      "ll": 116,
      "it": 117,
      "Ġto": 118,
      "Ġwi": 119,
      "Ġe": 120,
      "ra": 121,
      "Ġbe": 122,
      "Ġthat": 123,
      "Ġl": 124,
      "Ġg": 125,
      "se": 126,
      "Ġwith": 127,
      "ro": 128,
      "ce": 129,
      "Ġk": 130,
      "Ġwh": 131,
      "le": 132,
      "ri": 133,
      "Ġn": 134,
      "Ġre": 135,
      "Ġis": 136,
      "al": 137,
      "Ġv": 138,
      "Ġu": 139,
      "gh": 140,
      "ch": 141,
      "st": 142,
      "Ġhe": 143,
      "Ġon": 144,
      "ay": 145,
      "av": 146,
      "Ġi": 147,
      "ow": 148,
      "ion": 149,
      "ct": 150,
      "ld": 151,
      "ad": 152,
      "Ġby": 153,
      "om": 154,
      "ir": 155,
      "im": 156,
      "Ġas": 157,
      "Ġhis": 158,
      "ver": 159,
      "ent": 160,
      "id": 161,
      "ly": 162,
      "Ġfor": 163,
      "Ġsh": 164,
      "Ġsa": 165,
      "ght": 166,
      "ish": 167,
      "and": 168,
      "ot": 169,
      "Ġall": 170,
      "od": 171,
      "Ġsu": 172,
      "am": 173,
      "ess": 174,
      "ru": 175,
      "Ġthou": 176,
      "ain": 177,
      "ther": 178,
      "Ġar": 179,
      "ut": 180,
      "ic": 181,
      "Ġde": 182,
      "ere": 183,
      "est": 184,
      "ak": 185,
      "Ġy": 186,
      "Ġst": 187,
      "iv": 188,
      "Ġit": 189,
      "Ġking": 190,
      "reat": 191,
      "Ġan": 192,
      "Ġse": 193,
      "ur": 194,
      "Ġwho": 195,
      "Ġhav": 196,
      "Ġson": 197,
      "Ġcon": 198,
      "Ġat": 199,
      "Ġ(": 200,
      "Ġthis": 201,
      "Ġal": 202,
      "Ġhim": 203,
      "nt": 204,
      "Ġme": 205,
      "ore": 206,
      "Ġare": 207,
      "Ġli": 208,
      "Ġone": 209,
      "ul": 210,
      "res": 211,
      "ous": 212,
      "qu": 213,
      "rom": 214,
      "ers": 215,
      "us": 216,
      "ds": 217,
      "Ġfrom": 218,
      "ts": 219,
      "pe": 220,
      "Ġor": 221,
      "all": 222,
      "ight": 223,
      "ose": 224,
      "Ġwor": 225,
      "Ġnot": 226,
      "'s": 227,
      "ter": 228,
      "Ġpro": 229,
      "ble": 230,
      "Ġwe": 231,
      "ge": 232,
      "Ġwas": 233,
      "Ġtheir": 234,
      "Ġ'": 235,
      "Ġsaid": 236,
      "ire": 237,
      "Ġthose": 238,
      "Ġex": 239,
      "ana": 240,
      "ke": 241,
      "na": 242,
      "Ġthen": 243,
      "Ġgreat": 244,
      "Ġch": 245,
      "Ġwhi": 246,
      "sh": 247,
      "Ġthy": 248,
      "ap": 249,
      "ould": 250,
      "our": 251,
      "Ġmy": 252,
      "Ġbh": 253,
      "Ġthere": 254,
      "Ġcom": 255,
      "Ġra": 256,
      "if": 257,
      "so": 258,
      "Ġbra": 259,
      "sel": 260,
      "il": 261,
      "Ġen": 262,
      "Ġman": 263,
      "ity": 264,
      "ation": 265,
      "Ġhave": 266,
      "et": 267,
      "hm": 268,
      "Ġdo": 269,
      "ast": 270,
      "ies": 271,
      "ect": 272,
      "Ġfo": 273,
      "Ġbrahm": 274,
      "att": 275,
      "ence": 276,
      "Ġup": 277,
      "Ġthem": 278,
      "ud": 279,
      "Ġher": 280,
      "ant": 281,
      "Ġthee": 282,
      "Ġthey": 283,
      "um": 284,
      "Ġwhich": 285,
      "ong": 286,
      "Ġ\"": 287,
      "Ġlike": 288,
      "Ġdis": 289,
      "Ġother": 290,
      "el": 291,
      "âĢ": 292,
      "ath": 293,
      "ost": 294,
      "ind": 295,
      "old": 296,
      "Ġad": 297,
      "ame": 298,
      "os": 299,
      "Ġam": 300,
      "Ġalso": 301,
      "ever": 302,
      "la": 303,
      "rish": 304,
      "Ġob": 305,
      "tain": 306,
      "ck": 307,
      "ive": 308,
      "Ġshould": 309,
      "led": 310,
      "Ġun": 311,
      "Ġac": 312,
      "Ġdes": 313,
      "Ġthese": 314,
      "self": 315,
      "Ġbec": 316,
      ".'": 317,
      "attle": 318,
      "Ġhad": 319,
      "ard": 320,
      "Ġaf": 321,
      "row": 322,
      "Ġj": 323,
      "ear": 324,
      "Ġcar": 325,
      "Ġbattle": 326,
      "Ġbeh": 327,
      "ell": 328,
      "Ġind": 329,
      "Ġsp": 330,
      "Ġwhat": 331,
      "now": 332,
      "out": 333,
      "ig": 334,
      "Ġhaving": 335,
      "ven": 336,
      "ach": 337,
      "Ġag": 338,
      "Ġso": 339,
      "Ġab": 340,
      "ered": 341,
      "way": 342,
      "Ġunt": 343,
      "Ġwill": 344,
      "ood": 345,
      "ful": 346,
      "pp": 347,
      "Ġreg": 348,
      "Ġsl": 349,
      "Ġint": 350,
      "ie": 351,
      "ome": 352,
      "Ġwere": 353,
      "Ġbeen": 354,
      "rou": 355,
      "cri": 356,
      "able": 357,
      "Ġunto": 358,
      "ill": 359,
      "Ġmight": 360,
      "Ġmen": 361,
      "em": 362,
      "red": 363,
      "arth": 364,
      "Ġever": 365,
      "Ġknow": 366,
      "Ġfore": 367,
      "ci": 368,
      "pt": 369,
      "nder": 370,
      "Ġact": 371,
      "ya": 372,
      "ued": 373,
      "ine": 374,
      "war": 375,
      "sed": 376,
      "ist": 377,
      "Ġwhen": 378,
      "art": 379,
      "Ġpand": 380,
      "eed": 381,
      "ated": 382,
      "ors": 383,
      "ok": 384,
      "ions": 385,
      "fe": 386,
      "pl": 387,
      "ust": 388,
      "ree": 389,
      "ons": 390,
      "igh": 391,
      "Ġend": 392,
      "Ġno": 393,
      "ate": 394,
      "ces": 395,
      "ness": 396,
      "Ġart": 397,
      "Ġeven": 398,
      "Ġper": 399,
      "fore": 400,
      "Ġcreat": 401,
      "ata": 402,
      "ma": 403,
      "Ġri": 404,
      "Ġres": 405,
      "ve": 406,
      "va": 407,
      "ure": 408,
      "rit": 409,
      "Ġhow": 410,
      "ceed": 411,
      "Ġvi": 412,
      "ord": 413,
      "Ġfa": 414,
      "Ġco": 415,
      "Ġgod": 416,
      "af": 417,
      "Ġtw": 418,
      "Ġmighty": 419,
      "Ġhigh": 420,
      "Ġpers": 421,
      "Ġwords": 422,
      "au": 423,
      "Ġupon": 424,
      "ial": 425,
      "per": 426,
      "Ġru": 427,
      "Ġbo": 428,
      "--": 429,
      "wn": 430,
      "ans": 431,
      "less": 432,
      "ures": 433,
      "ment": 434,
      "ira": 435,
      "Ġbeing": 436,
      "ount": 437,
      "Ġsou": 438,
      "ice": 439,
      "hish": 440,
      "Ġoff": 441,
      "Ġevery": 442,
      "Ġearth": 443,
      "crif": 444,
      "most": 445,
      "ied": 446,
      "ull": 447,
      "ake": 448,
      "Ġarm": 449,
      "one": 450,
      "for": 451,
      "oss": 452,
      "Ġworld": 453,
      "Ġif": 454,
      "Ġku": 455,
      "Ġro": 456,
      "Ġver": 457,
      "ance": 458,
      "ced": 459,
      "Ġhimself": 460,
      "Ġdh": 461,
      "Ġforemost": 462,
      "Ġthus": 463,
      "un": 464,
      "iver": 465,
      "Ġim": 466,
      "Ġma": 467,
      "Ġacc": 468,
      "Ġsuch": 469,
      "Ġafter": 470,
      "Ġsacrif": 471,
      "Ġhas": 472,
      "rie": 473,
      "Ġbehold": 474,
      "Ġsin": 475,
      "Ġarrow": 476,
      "ade": 477,
      "Ġcont": 478,
      "ha": 479,
      "ier": 480,
      "ga": 481,
      "Ġbhar": 482,
      "Ġany": 483,
      "Ġbrahman": 484,
      "una": 485,
      "Ġtim": 486,
      "Ġamong": 487,
      "Ġcan": 488,
      "Ġshall": 489,
      "Ġqu": 490,
      "Ġwithout": 491,
      "ious": 492,
      "orn": 493,
      "aya": 494,
      "ens": 495,
      "aying": 496,
      "Ġbow": 497,
      "Ġform": 498,
      "thira": 499,
      ".,": 500,
      "Ġpra": 501,
      "Ġposs": 502,
      "Ġdest": 503,
      "Ġle": 504,
      "Ġdr": 505,
      "ple": 506,
      "other": 507,
      "me": 508,
      "udhish": 509,
      "udhishthira": 510,
      "mb": 511,
      "ue": 512,
      "Ġ1": 513,
      "Ġmon": 514,
      "Ġmany": 515,
      "Ġspe": 516,
      "Ġinto": 517,
      "Ġagain": 518,
      "Ġown": 519,
      "ved": 520,
      "Ġtru": 521,
      "Ġbod": 522,
      "Ġatt": 523,
      "Ġvir": 524,
      "Ġpossess": 525,
      "Ġlo": 526,
      "Ġunder": 527,
      "Ġlife": 528,
      "Ġyou": 529,
      "nds": 530,
      "ĠâĢ": 531,
      "Ġele": 532,
      "ph": 533,
      "Ġnever": 534,
      "the": 535,
      "Ġcl": 536,
      "Ġbut": 537,
      ").": 538,
      "ise": 539,
      "ands": 540,
      "own": 541,
      "arch": 542,
      "Ġhero": 543,
      "Ġbeg": 544,
      "alled": 545,
      "ject": 546,
      "Ġrace": 547,
      "Ġshaf": 548,
      "riors": 549,
      "ass": 550,
      "Ġbhim": 551,
      "ants": 552,
      "Ġits": 553,
      "avas": 554,
      "Ġtime": 555,
      "Ġarrows": 556,
      "Ġadd": 557,
      "Ġsons": 558,
      "),": 559,
      "juna": 560,
      "ings": 561,
      "Ġsub": 562,
      "Ġdown": 563,
      "Ġbharata": 564,
      "Ġrish": 565,
      "ara": 566,
      "eth": 567,
      "ĠâĢľ": 568,
      "Ġover": 569,
      "Ġmay": 570,
      "ities": 571,
      "urn": 572,
      "Ġyudhishthira": 573,
      "Ġendued": 574,
      "Ġhath": 575,
      "ted": 576,
      "Ġaway": 577,
      "Ġbro": 578,
      "Ġwar": 579,
      "Ġtwo": 580,
      "Ġsoul": 581,
      "Ġinc": 582,
      "Ġkar": 583,
      "ways": 584,
      "Ġhowever": 585,
      "iverse": 586,
      "Ġvery": 587,
      "aras": 588,
      "Ġalways": 589,
      "Ġgood": 590,
      "Ġcalled": 591,
      "Ġbrahmanas": 592,
      "Ġdev": 593,
      "Ġdesire": 594,
      "Ġsee": 595,
      "ged": 596,
      "oy": 597,
      "Ġpre": 598,
      "Ġarjuna": 599,
      "Ġshafts": 600,
      "Ġaddres": 601,
      "Ġus": 602,
      "cept": 603,
      "Ġmonarch": 604,
      "Ġday": 605,
      "ona": 606,
      "fl": 607,
      "Ġbrahmana": 608,
      "Ġlord": 609,
      "jaya": 610,
      "Ġbecame": 611,
      "ol": 612,
      "Ġweap": 613,
      "Ġcel": 614,
      "Ġne": 615,
      "estial": 616,
      "form": 617,
      "Ġdur": 618,
      "Ġeleph": 619,
      "Ġsome": 620,
      "Ġgra": 621,
      "ished": 622,
      "Ġcreatures": 623,
      "Ġapp": 624,
      "Ġboth": 625,
      "ava": 626,
      "wh": 627,
      "Ġvirt": 628,
      "Ġdrona": 629,
      "Ġcelestial": 630,
      "een": 631,
      "rin": 632,
      "Ġtherefore": 633,
      "ves": 634,
      "Ġpossessed": 635,
      "Ġord": 636,
      "ction": 637,
      "Ġgo": 638,
      "rough": 639,
      "Ġgods": 640,
      "Ġsw": 641,
      "ort": 642,
      "tha": 643,
      "illed": 644,
      "Ġacts": 645,
      "erg": 646,
      "Ġbody": 647,
      "Ġfe": 648,
      "Ġindeed": 649,
      "Ġbeholding": 650,
      "cted": 651,
      "thing": 652,
      "Ġthree": 653,
      "Ġent": 654,
      "eous": 655,
      "wards": 656,
      "Ġkarna": 657,
      "cc": 658,
      "Ġright": 659,
      "Ġgr": 660,
      "Ġfl": 661,
      "are": 662,
      "Ġkuru": 663,
      "aut": 664,
      "Ġhead": 665,
      "Ġthrough": 666,
      "ult": 667,
      "Ġperson": 668,
      "Ġhear": 669,
      "Ġfir": 670,
      "hana": 671,
      "Ġwat": 672,
      "Ġour": 673,
      "ations": 674,
      "ps": 675,
      ",--": 676,
      "cked": 677,
      "Ġobtain": 678,
      "ĠĠ": 679,
      "Ġfoes": 680,
      "tect": 681,
      "âĢĿ": 682,
      "Ġenerg": 683,
      "Ġpandavas": 684,
      "Ġwhile": 685,
      "man": 686,
      "alth": 687,
      "Ġey": 688,
      "ala": 689,
      "Ġenergy": 690,
      "Ġfire": 691,
      "ik": 692,
      "Ġattain": 693,
      "Ġmer": 694,
      "Ġnow": 695,
      "erv": 696,
      "ren": 697,
      "ances": 698,
      "yas": 699,
      "Ġprotect": 700,
      "Ġonly": 701,
      "Ġtak": 702,
      "Ġpla": 703,
      "Ġmade": 704,
      "ura": 705,
      "Ġhu": 706,
      "Ġasce": 707,
      "Ġheav": 708,
      "ices": 709,
      "shi": 710,
      "Ġviz": 711,
      "Ġout": 712,
      "sequ": 713,
      "ile": 714,
      "Ġill": 715,
      "Ġhast": 716,
      "Ġmind": 717,
      "Ġcons": 718,
      "Ġregard": 719,
      "Ġcontin": 720,
      "ited": 721,
      "app": 722,
      "Ġslain": 723,
      "Ġbest": 724,
      "Ġbegan": 725,
      "dom": 726,
      "pect": 727,
      "Ġbl": 728,
      "ep": 729,
      "Ġwealth": 730,
      "Ġdut": 731,
      "ena": 732,
      "Ġthous": 733,
      "ran": 734,
      "Ġkin": 735,
      "Ġpres": 736,
      "anjaya": 737,
      "Ġpier": 738,
      "ower": 739,
      "yod": 740,
      "Ġpandu": 741,
      "Ġacqu": 742,
      "Ġsaying": 743,
      "Ġaddressed": 744,
      "ild": 745,
      "ayana": 746,
      "ati": 747,
      "Ġut": 748,
      "Ġanother": 749,
      "up": 750,
      "yodhana": 751,
      "Ġconsequ": 752,
      "ledge": 753,
      "ory": 754,
      "Ġfoll": 755,
      "Ġ2": 756,
      "Ġkrish": 757,
      "Ġved": 758,
      "Ġbefore": 759,
      "tra": 760,
      "Ġrel": 761,
      "ound": 762,
      "ady": 763,
      "Ġbeaut": 764,
      "Ġtowards": 765,
      "Ġsteed": 766,
      "semb": 767,
      "Ġwould": 768,
      "Ġfear": 769,
      "Ġwell": 770,
      "Ġbecome": 771,
      "Ġsat": 772,
      "ally": 773,
      "its": 774,
      "ily": 775,
      "vers": 776,
      "Ġkings": 777,
      "Ġperform": 778,
      "Ġprin": 779,
      "Ġpe": 780,
      "Ġhapp": 781,
      "Ġkrishna": 782,
      "ave": 783,
      "ink": 784,
      "Ġpri": 785,
      "Ġrighteous": 786,
      "Ġknowledge": 787,
      "Ġproceed": 788,
      "Ġslay": 789,
      "Ġlet": 790,
      "Ġheart": 791,
      "Ġhere": 792,
      "Ġlook": 793,
      "ras": 794,
      "fli": 795,
      "Ġbrother": 796,
      "Ġweapons": 797,
      "Ġbir": 798,
      "Ġgif": 799,
      "Ġfollow": 800,
      "Ġdeath": 801,
      "Ġmeans": 802,
      "Ġothers": 803,
      "Ġconsequence": 804,
      "Ġksh": 805,
      "Ġsun": 806,
      "Ġsteeds": 807,
      "Ġgold": 808,
      "Ġwra": 809,
      "Ġbhima": 810,
      "ghter": 811,
      "Ġcomp": 812,
      "Ġcomm": 813,
      "lf": 814,
      "Ġpersons": 815,
      "Ġobject": 816,
      "tic": 817,
      "ksh": 818,
      "Ġwrath": 819,
      "Ġliv": 820,
      "Ġaccom": 821,
      "Ġeach": 822,
      "Ġcontinued": 823,
      "Ġequ": 824,
      "Ġfilled": 825,
      "Ġbet": 826,
      "ide": 827,
      "Ġshe": 828,
      "Ġmo": 829,
      "Ġfrie": 830,
      "Ġheaven": 831,
      "ents": 832,
      "ertain": 833,
      "ting": 834,
      "atri": 835,
      "Ġchild": 836,
      "Ġref": 837,
      "Ġmount": 838,
      "amp": 839,
      "Ġter": 840,
      "apable": 841,
      "Ġcome": 842,
      "Ġduryodhana": 843,
      "Ġabout": 844,
      "ite": 845,
      "Ġgrie": 846,
      "Ġrec": 847,
      "Ġdevot": 848,
      "Ġwarriors": 849,
      "ta": 850,
      "Ġpo": 851,
      "Ġpen": 852,
      "Ġdel": 853,
      "Ġascetic": 854,
      "vas": 855,
      "iff": 856,
      "Ġeyes": 857,
      "pa": 858,
      "ark": 859,
      "Ġelephants": 860,
      "ber": 861,
      "Ġmore": 862,
      "of": 863,
      "Ġworshi": 864,
      "Ġnor": 865,
      "Ġwhose": 866,
      "arash": 867,
      "ring": 868,
      "iz": 869,
      "ingly": 870,
      "round": 871,
      "Ġprow": 872,
      "Ġlong": 873,
      "Ġret": 874,
      "Ġyo": 875,
      "ick": 876,
      "Ġprowess": 877,
      "ield": 878,
      "Ġgand": 879,
      "Ġbull": 880,
      "Ġdiv": 881,
      "ab": 882,
      "Ġpl": 883,
      "ry": 884,
      "Ġsens": 885,
      "Ġindra": 886,
      "Ġpu": 887,
      "arge": 888,
      "cell": 889,
      "Ġgu": 890,
      "Ġpierced": 891,
      "ling": 892,
      "Ġtre": 893,
      "Ġrespect": 894,
      "Ġvas": 895,
      "rious": 896,
      "Ġbhish": 897,
      "als": 898,
      "Ġfru": 899,
      "Ġaffli": 900,
      "Ġrem": 901,
      "Ġbhishma": 902,
      "Ġsm": 903,
      "aka": 904,
      "Ġwater": 905,
      "Ġhund": 906,
      "âĢĻ": 907,
      "sou": 908,
      "atter": 909,
      "Ġass": 910,
      "Ġintell": 911,
      "Ġway": 912,
      "Ġself": 913,
      "Ġfirst": 914,
      "arashtra": 915,
      "Ġexcell": 916,
      "Ġcame": 917,
      "Ġobs": 918,
      "rib": 919,
      "ag": 920,
      "ither": 921,
      "Ġsacrifice": 922,
      "Ġvedas": 923,
      "Ġkshatri": 924,
      "ourse": 925,
      "Ġtruth": 926,
      "Ġunderst": 927,
      "ief": 928,
      "Ġbla": 929,
      "Ġhost": 930,
      "ible": 931,
      "Ġfall": 932,
      "ari": 933,
      "Ġdid": 934,
      "Ġarms": 935,
      "iss": 936,
      "Ġmountain": 937,
      "Ġsenses": 938,
      "Ġdiff": 939,
      "ix": 940,
      "ress": 941,
      "Ġbecom": 942,
      "fect": 943,
      "Ġfood": 944,
      "Ġsur": 945,
      "ritarashtra": 946,
      "Ġyear": 947,
      "Ġexcellent": 948,
      "ned": 949,
      "Ġkinds": 950,
      "souled": 951,
      "Ġgiv": 952,
      "!'": 953,
      "ank": 954,
      "Ġsc": 955,
      "roy": 956,
      "Ġpract": 957,
      "ama": 958,
      "Ġdiverse": 959,
      "anding": 960,
      "med": 961,
      "Ġrishis": 962,
      "Ġsacrifices": 963,
      "iness": 964,
      "Ġlarge": 965,
      "Ġillust": 966,
      "ired": 967,
      "leas": 968,
      "Ġva": 969,
      "Ġvar": 970,
      "Ġintellig": 971,
      "de": 972,
      "Ġsk": 973,
      "Ġmerit": 974,
      "Ġborn": 975,
      "Ġye": 976,
      "Ġpur": 977,
      "ning": 978,
      "asena": 979,
      "ified": 980,
      "Ġillustrious": 981,
      "Ġdep": 982,
      "Ġagainst": 983,
      "Ġdestroy": 984,
      "Ġonce": 985,
      "Ġfour": 986,
      "Ġrul": 987,
      "Ġnar": 988,
      "Ġfight": 989,
      "ada": 990,
      "ained": 991,
      "Ġfier": 992,
      "Ġwhere": 993,
      "Ġtell": 994,
      "Ġcut": 995,
      "oud": 996,
      "Ġset": 997,
      ".'\"": 998,
      "Ġduties": 999,
      "ni": 1000,
      "Ġbrahma": 1001,
      "Ġvirtue": 1002,
      "ars": 1003,
      "selves": 1004,
      "has": 1005,
      "ause": 1006,
      "Ġmad": 1007,
      "ack": 1008,
      "Ġpleas": 1009,
      "Ġheard": 1010,
      "Ġdeities": 1011,
      "Ġhum": 1012,
      "Ġdesir": 1013,
      "ats": 1014,
      "kshas": 1015,
      "gth": 1016,
      "Ġdra": 1017,
      "Ġrishi": 1018,
      "ute": 1019,
      "Ġvan": 1020,
      "ampayana": 1021,
      "Ġwom": 1022,
      "Ġsay": 1023,
      "aus": 1024,
      "ition": 1025,
      "ween": 1026,
      "Ġplace": 1027,
      "Ġfather": 1028,
      "du": 1029,
      "eld": 1030,
      "Ġchief": 1031,
      "Ġvow": 1032,
      "Ġrakshas": 1033,
      "ating": 1034,
      "Ġparth": 1035,
      "iful": 1036,
      "Ġgrief": 1037,
      "nal": 1038,
      "pped": 1039,
      "Ġarmy": 1040,
      "Ġimp": 1041,
      "Ġche": 1042,
      "Ġbetween": 1043,
      "Ġpower": 1044,
      "Ġname": 1045,
      "Ġseen": 1046,
      "warriors": 1047,
      "Ġtr": 1048,
      "ger": 1049,
      "ments": 1050,
      "Ġho": 1051,
      "Ġyour": 1052,
      "cing": 1053,
      "Ġappro": 1054,
      "Ġuniverse": 1055,
      "end": 1056,
      "rain": 1057,
      "ude": 1058,
      "Ġenc": 1059,
      "Ġfull": 1060,
      "Ġfive": 1061,
      "Ġcould": 1062,
      "Ġdist": 1063,
      "rived": 1064,
      "Ġexceed": 1065,
      "Ġap": 1066,
      "ith": 1067,
      "Ġtrans": 1068,
      "cceed": 1069,
      "Ġ3": 1070,
      "Ġtro": 1071,
      "Ġfierce": 1072,
      "ener": 1073,
      "ior": 1074,
      "Ġterri": 1075,
      "owers": 1076,
      "Ġsucceed": 1077,
      "Ġnum": 1078,
      "Ġtake": 1079,
      "nti": 1080,
      "Ġdhritarashtra": 1081,
      "Ġinst": 1082,
      "Ġinv": 1083,
      "Ġgandh": 1084,
      "Ġsuper": 1085,
      "Ġcov": 1086,
      "isampayana": 1087,
      "Ġbecomes": 1088,
      "Ġdesirous": 1089,
      "Ġlear": 1090,
      "rior": 1091,
      "uous": 1092,
      "Ġhands": 1093,
      "ary": 1094,
      "Ġbeautiful": 1095,
      "ruction": 1096,
      "wa": 1097,
      "Ġenga": 1098,
      "Ġsle": 1099,
      "age": 1100,
      "Ġfell": 1101,
      "Ġgrat": 1102,
      "akes": 1103,
      "ops": 1104,
      "Ġwo": 1105,
      "right": 1106,
      "Ġprecept": 1107,
      "Ġgl": 1108,
      "oub": 1109,
      "Ġask": 1110,
      "Ġhearing": 1111,
      "Ġocc": 1112,
      "Ġforest": 1113,
      "Ġafflicted": 1114,
      "ace": 1115,
      "Ġthink": 1116,
      "Ġbirth": 1117,
      "Ġwish": 1118,
      "ened": 1119,
      "Ġcond": 1120,
      "Ġdisc": 1121,
      "Ġthan": 1122,
      "rength": 1123,
      "vere": 1124,
      "Ġrest": 1125,
      "Ġseem": 1126,
      "Ġgive": 1127,
      "Ġsame": 1128,
      "Ġstrength": 1129,
      "Ġenj": 1130,
      "ris": 1131,
      "Ġpan": 1132,
      "uch": 1133,
      "aking": 1134,
      "ins": 1135,
      "Ġgrands": 1136,
      "Ġrush": 1137,
      "Ġla": 1138,
      "ret": 1139,
      "Ġhand": 1140,
      "Ġaccompl": 1141,
      "Ġtroops": 1142,
      "Ġdoub": 1143,
      "Ġpart": 1144,
      "men": 1145,
      "Ġthousand": 1146,
      "Ġresemb": 1147,
      "Ġstru": 1148,
      "Ġblaz": 1149,
      "Ġpartha": 1150,
      "Ġenjoy": 1151,
      "Ġef": 1152,
      "Ġkunti": 1153,
      "Ġpar": 1154,
      "cred": 1155,
      "Ġcars": 1156,
      "Ġexceedingly": 1157,
      "Ġcaus": 1158,
      "ode": 1159,
      "Ġkingdom": 1160,
      "Ġheroes": 1161,
      "Ġbhimasena": 1162,
      "Ġpenances": 1163,
      "Ġreturn": 1164,
      "Ġcast": 1165,
      "Ġdau": 1166,
      "ering": 1167,
      "Ġconvers": 1168,
      "Ġwhom": 1169,
      "Ġbel": 1170,
      "Ġregarded": 1171,
      "Ġsn": 1172,
      "Ġsacred": 1173,
      "gether": 1174,
      "Ġfield": 1175,
      "Ġmother": 1176,
      "Ġknown": 1177,
      "Ġyears": 1178,
      "uk": 1179,
      "Ġwhole": 1180,
      "adeva": 1181,
      "pet": 1182,
      "Ġtogether": 1183,
      "Ġsom": 1184,
      ".âĢĿ": 1185,
      "Ġterrible": 1186,
      "Ġdevoted": 1187,
      "les": 1188,
      "Ġaccord": 1189,
      "Ġte": 1190,
      "Ġproceeded": 1191,
      "Ġben": 1192,
      "Ġvis": 1193,
      "Ġthemselves": 1194,
      "ual": 1195,
      "ards": 1196,
      "ty": 1197,
      "Ġproper": 1198,
      "Ġquick": 1199,
      "Ġconst": 1200,
      "Ġold": 1201,
      "lau": 1202,
      "Ġsal": 1203,
      "Ġruler": 1204,
      "pre": 1205,
      "Ġlist": 1206,
      "Ġrit": 1207,
      "ires": 1208,
      "Ġworlds": 1209,
      "Ġpass": 1210,
      "Ġcertain": 1211,
      "ides": 1212,
      "Ġlight": 1213,
      "Ġhundred": 1214,
      "day": 1215,
      "xt": 1216,
      "Ġobserv": 1217,
      "Ġrep": 1218,
      "Ġmah": 1219,
      "Ġcelestials": 1220,
      "Ġtook": 1221,
      "Ġkind": 1222,
      "Ġthings": 1223,
      "Ġengaged": 1224,
      "Ġev": 1225,
      "ason": 1226,
      "Ġgifts": 1227,
      "Ġkurus": 1228,
      "Ġwife": 1229,
      "Ġdestruction": 1230,
      "Ġthough": 1231,
      "ouse": 1232,
      ".\"": 1233,
      "rig": 1234,
      "not": 1235,
      "Ġsire": 1236,
      "Ġcou": 1237,
      "ached": 1238,
      "Ġjoy": 1239,
      "Ġloud": 1240,
      "Ġlooked": 1241,
      "ys": 1242,
      "Ġbear": 1243,
      "Ġbrothers": 1244,
      "bh": 1245,
      "Ġintelligence": 1246,
      "ase": 1247,
      "Ġtig": 1248,
      "Ġbless": 1249,
      "Ġrelig": 1250,
      "co": 1251,
      "Ġstruck": 1252,
      "Ġhon": 1253,
      "ternal": 1254,
      "Ġpreceptor": 1255,
      "Ġdw": 1256,
      "Ġutt": 1257,
      "ying": 1258,
      "Ġslau": 1259,
      "Ġeverything": 1260,
      "Ġconversant": 1261,
      "Ġunderstanding": 1262,
      "Ġdaughter": 1263,
      "Ġdoubt": 1264,
      "Ġsud": 1265,
      "Ġhappiness": 1266,
      "ove": 1267,
      "Ġback": 1268,
      "Ġsoon": 1269,
      "Ġanim": 1270,
      "Ġexist": 1271,
      "Ġnight": 1272,
      "aksh": 1273,
      "Ġstand": 1274,
      "Ġequal": 1275,
      "Ġfoe": 1276,
      "Ġdays": 1277,
      "ccess": 1278,
      "Ġlive": 1279,
      "Ġsubject": 1280,
      "ched": 1281,
      "ised": 1282,
      "aster": 1283,
      "Ġval": 1284,
      "uct": 1285,
      "Ġvanqu": 1286,
      "Ġmake": 1287,
      "ading": 1288,
      "Ġpros": 1289,
      "Ġsight": 1290,
      "ully": 1291,
      "Ġquickly": 1292,
      "Ġdelight": 1293,
      "Ġnat": 1294,
      "reed": 1295,
      "Ġcle": 1296,
      "Ġwicked": 1297,
      "Ġwood": 1298,
      "Ġten": 1299,
      "Ġregions": 1300,
      "he": 1301,
      "Ġcourse": 1302,
      "Ġinf": 1303,
      "Ġcapable": 1304,
      "icial": 1305,
      "Ġdec": 1306,
      "gn": 1307,
      "pic": 1308,
      "ang": 1309,
      "alas": 1310,
      "Ġtaking": 1311,
      "Ġach": 1312,
      "Ġsaty": 1313,
      "Ġorder": 1314,
      "ft": 1315,
      "Ġwa": 1316,
      "Ġlit": 1317,
      "Ġencount": 1318,
      "cript": 1319,
      "ality": 1320,
      "Ġattrib": 1321,
      "Ġobjects": 1322,
      "Ġsuperior": 1323,
      "Ġwithin": 1324,
      "Ġkine": 1325,
      "Ġprince": 1326,
      "Ġsak": 1327,
      "rated": 1328,
      "Ġwis": 1329,
      "orrow": 1330,
      "utes": 1331,
      "Ġbeings": 1332,
      "Ġseek": 1333,
      "Ġrighteousness": 1334,
      "iva": 1335,
      "ika": 1336,
      "Ġdoes": 1337,
      "Ġamongst": 1338,
      "ator": 1339,
      "cip": 1340,
      "Ġexc": 1341,
      "Ġdhan": 1342,
      "Ġprosper": 1343,
      "Ġwisdom": 1344,
      "Ġfriends": 1345,
      "Ġalone": 1346,
      "Ġvict": 1347,
      "Ġcannot": 1348,
      "Ġliving": 1349,
      "thou": 1350,
      "Ġear": 1351,
      "Ġmuch": 1352,
      "fully": 1353,
      "iser": 1354,
      "Ġspeed": 1355,
      "Ġthousands": 1356,
      "Ġhuman": 1357,
      "Ġbre": 1358,
      "ouds": 1359,
      "Ġdu": 1360,
      "Ġblazing": 1361,
      "Ġclouds": 1362,
      "Ġlatter": 1363,
      "Ġexpl": 1364,
      "Ġsix": 1365,
      "Ġyoga": 1366,
      "Ġph": 1367,
      "ceiv": 1368,
      "ctions": 1369,
      "Ġvirtuous": 1370,
      "Ġaccording": 1371,
      "Ġwind": 1372,
      "aki": 1373,
      "Ġappe": 1374,
      "ense": 1375,
      "Ġmyself": 1376,
      "Ġdhananjaya": 1377,
      "Ġmean": 1378,
      "Ġpoin": 1379,
      "Ġconduct": 1380,
      "Ġsupre": 1381,
      "Ġdan": 1382,
      "Ġprosperity": 1383,
      "ms": 1384,
      "Ġwent": 1385,
      "Ġforce": 1386,
      "cious": 1387,
      "tle": 1388,
      "Ġscript": 1389,
      "Ġeternal": 1390,
      "Ġsuccess": 1391,
      "ech": 1392,
      "Ġcause": 1393,
      "Ġdire": 1394,
      "Ġnam": 1395,
      "Ġcovered": 1396,
      "Ġsupreme": 1397,
      "Ġlisten": 1398,
      "Ġtoday": 1399,
      "Ġem": 1400,
      "any": 1401,
      "Ġelephant": 1402,
      "Ġpeo": 1403,
      "Ġmust": 1404,
      "sol": 1405,
      "Ġpresent": 1406,
      "Ġsing": 1407,
      "Ġfra": 1408,
      "Ġcomple": 1409,
      "Ġce": 1410,
      "Ġregion": 1411,
      "Ġconc": 1412,
      "Ġadv": 1413,
      "Ġslayer": 1414,
      "Ġfriend": 1415,
      "Ġachie": 1416,
      "Ġmid": 1417,
      "Ġexp": 1418,
      "Ġcur": 1419,
      "Ġmaster": 1420,
      "Ġrushed": 1421,
      "Ġcommand": 1422,
      "sw": 1423,
      "ared": 1424,
      "?'": 1425,
      "Ġoce": 1426,
      "aving": 1427,
      "Ġobtained": 1428,
      "Ġhighly": 1429,
      "Ġchast": 1430,
      "eds": 1431,
      "nce": 1432,
      "ours": 1433,
      "bs": 1434,
      "Ġenem": 1435,
      "Ġspeech": 1436,
      "Ġdeprived": 1437,
      "be": 1438,
      "Ġrage": 1439,
      "Ġpeople": 1440,
      "Ġnext": 1441,
      "Ġcheer": 1442,
      "Ġkshatriya": 1443,
      "hi": 1444,
      "with": 1445,
      "Ġfruits": 1446,
      "Ġgave": 1447,
      "ined": 1448,
      "Ġsinful": 1449,
      "Ġvri": 1450,
      "ks": 1451,
      "Ġjust": 1452,
      "Ġcount": 1453,
      "ention": 1454,
      "Ġshal": 1455,
      "Ġwonder": 1456,
      "aura": 1457,
      "rong": 1458,
      "Ġthine": 1459,
      "Ġblessed": 1460,
      "Ġsorrow": 1461,
      "Ġel": 1462,
      "Ġlast": 1463,
      "Ġgrandsire": 1464,
      "Ġhus": 1465,
      "vaisampayana": 1466,
      "Ġseeing": 1467,
      "ja": 1468,
      "Ġrites": 1469,
      "Ġwhy": 1470,
      "Ġstri": 1471,
      "Ġins": 1472,
      "Ġbeheld": 1473,
      "Ġabode": 1474,
      "lend": 1475,
      "Ġyet": 1476,
      "ff": 1477,
      "Ġthought": 1478,
      "Ġimm": 1479,
      "Ġvarious": 1480,
      "Ġrepe": 1481,
      "Ġfirm": 1482,
      "Ġcal": 1483,
      "Ġperformed": 1484,
      "Ġscriptures": 1485,
      "Ġprodu": 1486,
      "Ġpit": 1487,
      "Ġsplend": 1488,
      "Ġchildren": 1489,
      "icult": 1490,
      "Ġnumber": 1491,
      "armed": 1492,
      "Ġassemb": 1493,
      "under": 1494,
      "Ġansw": 1495,
      "yal": 1496,
      "ical": 1497,
      "air": 1498,
      "ving": 1499,
      "iting": 1500,
      "Ġdifficult": 1501,
      "den": 1502,
      "Ġsupp": 1503,
      "Ġspot": 1504,
      "Ġincapable": 1505,
      "Ġhusb": 1506,
      "ament": 1507,
      "Ġgratified": 1508,
      "Ġside": 1509,
      "Ġdone": 1510,
      "Ġtiger": 1511,
      "Ġaid": 1512,
      "Ġcru": 1513,
      "Ġhighest": 1514,
      "Ġsatyaki": 1515,
      "Ġang": 1516,
      "Ġdecked": 1517,
      "Ġgandhar": 1518,
      "to": 1519,
      "Ġocean": 1520,
      "plied": 1521,
      "Ġlot": 1522,
      "Ġspeak": 1523,
      "Ġagree": 1524,
      "by": 1525,
      "Ġvrish": 1526,
      "Ġhouse": 1527,
      "Ġdwell": 1528,
      "Ġuttered": 1529,
      "oured": 1530,
      "Ġdark": 1531,
      "Ġeman": 1532,
      "Ġstill": 1533,
      "Ġlead": 1534,
      "udeva": 1535,
      "Ġfreed": 1536,
      "Ġable": 1537,
      "Ġdeep": 1538,
      "Ġconf": 1539,
      "Ġcomb": 1540,
      "Ġsim": 1541,
      "Ġhor": 1542,
      "Ġjan": 1543,
      "Ġroyal": 1544,
      "Ġevil": 1545,
      "Ġslaughter": 1546,
      "Ġke": 1547,
      "Ġaccept": 1548,
      "Ġslaying": 1549,
      "Ġthyself": 1550,
      "Ġtaken": 1551,
      "Ġgiven": 1552,
      "Ġpanch": 1553,
      "Ġran": 1554,
      "Ġtou": 1555,
      "ert": 1556,
      "Ġwise": 1557,
      "Ġvid": 1558,
      "Ġbodies": 1559,
      "Ġblood": 1560,
      "Ġsurround": 1561,
      "Ġones": 1562,
      "Ġgar": 1563,
      "Ġweapon": 1564,
      "usion": 1565,
      "Ġsplendour": 1566,
      "Ġworship": 1567,
      "Ġlotus": 1568,
      "pend": 1569,
      "Ġkshatriyas": 1570,
      "Ġcity": 1571,
      "Ġspir": 1572,
      "umna": 1573,
      "ner": 1574,
      "Ġpeace": 1575,
      "Ġserv": 1576,
      "Ġemancip": 1577,
      "Ġvows": 1578,
      "Ġnature": 1579,
      "hu": 1580,
      "Ġwhe": 1581,
      "Ġitself": 1582,
      "rought": 1583,
      "Ġgift": 1584,
      "Ġasked": 1585,
      "Ġthir": 1586,
      "Ġpure": 1587,
      "Ġkaura": 1588,
      "Ġdiffere": 1589,
      "Ġaccomplish": 1590,
      "Ġsol": 1591,
      "Ġvictory": 1592,
      "mit": 1593,
      "te": 1594,
      "Ġseven": 1595,
      "Ġattributes": 1596,
      "Ġmar": 1597,
      "Ġsanjaya": 1598,
      "enerate": 1599,
      "bhish": 1600,
      "Ġbur": 1601,
      "Ġforth": 1602,
      "Ġrepeated": 1603,
      "Ġdru": 1604,
      "Ġline": 1605,
      "Ġfel": 1606,
      "Ġadorn": 1607,
      "sing": 1608,
      "Ġregenerate": 1609,
      "Ġbene": 1610,
      "Ġcare": 1611,
      "that": 1612,
      "Ġutter": 1613,
      "Ġbath": 1614,
      "Ġwoods": 1615,
      "picious": 1616,
      "adra": 1617,
      "uni": 1618,
      "Ġreplied": 1619,
      "Ġstud": 1620,
      "Ġworshipped": 1621,
      "Ġcaused": 1622,
      "fn": 1623,
      "Ġinj": 1624,
      "Ġ{": 1625,
      "Ġmin": 1626,
      "Ġkri": 1627,
      "Ġword": 1628,
      "Ġentered": 1629,
      "Ġmountains": 1630,
      "Ġdre": 1631,
      "Ġheroic": 1632,
      "Ġrama": 1633,
      "Ġdri": 1634,
      "Ġmoon": 1635,
      "Ġanimals": 1636,
      "nu": 1637,
      "Ġformer": 1638,
      "Ġmaking": 1639,
      "Ġemb": 1640,
      "warrior": 1641,
      "cess": 1642,
      "Ġr": 1643,
      "itute": 1644,
      "Ġbrought": 1645,
      "Ġsuff": 1646,
      "anga": 1647,
      "ased": 1648,
      "uras": 1649,
      "Ġdisp": 1650,
      "Ġaffect": 1651,
      "king": 1652,
      "Ġmine": 1653,
      "Ġrakshasas": 1654,
      "Ġreason": 1655,
      "esh": 1656,
      "ains": 1657,
      "ariot": 1658,
      "cond": 1659,
      "ging": 1660,
      "Ġshow": 1661,
      "Ġpuiss": 1662,
      "Ġtrees": 1663,
      "Ġsense": 1664,
      "Ġnothing": 1665,
      "par": 1666,
      "Ġduty": 1667,
      "Ġyama": 1668,
      "Ġchariot": 1669,
      "Ġpritha": 1670,
      "Ġmat": 1671,
      "Ġlim": 1672,
      "Ġav": 1673,
      "Ġext": 1674,
      "risht": 1675,
      "Ġfree": 1676,
      "Ġvasudeva": 1677,
      "dra": 1678,
      "Ġhorse": 1679,
      "lt": 1680,
      "ron": 1681,
      "Ġaw": 1682,
      "Ġfame": 1683,
      "Ġda": 1684,
      "Ġsaw": 1685,
      "Ġrakshasa": 1686,
      "bhishma": 1687,
      "Ġyu": 1688,
      "Ġtrue": 1689,
      "Ġwaters": 1690,
      "Ġstate": 1691,
      "Ġalong": 1692,
      "Ġwomen": 1693,
      "Ġadorned": 1694,
      "ety": 1695,
      "Ġlittle": 1696,
      "Ġlearned": 1697,
      "ishnu": 1698,
      "Ġdisci": 1699,
      "Ġbeauty": 1700,
      "Ġthunder": 1701,
      "Ġstood": 1702,
      "Ġdivine": 1703,
      "Ġcow": 1704,
      "erve": 1705,
      "ates": 1706,
      "Ġpath": 1707,
      "assed": 1708,
      "adi": 1709,
      "pan": 1710,
      "Ġused": 1711,
      "hand": 1712,
      "Ġcompass": 1713,
      "Ġdost": 1714,
      "ign": 1715,
      "Ġsecond": 1716,
      "Ġaband": 1717,
      "Ġbenef": 1718,
      "Ġturn": 1719,
      "anas": 1720,
      "Ġprof": 1721,
      "Ġcrow": 1722,
      "Ġdeity": 1723,
      "Ġmidst": 1724,
      "Ġgandharvas": 1725,
      "ac": 1726,
      "ently": 1727,
      "Ġsum": 1728,
      "Ġabst": 1729,
      "Ġsil": 1730,
      "Ġground": 1731,
      "ury": 1732,
      "Ġcombat": 1733,
      "ne": 1734,
      "Ġasuras": 1735,
      "els": 1736,
      "Ġtra": 1737,
      "oke": 1738,
      "Ġregards": 1739,
      "Ġoccas": 1740,
      "Ġhusband": 1741,
      "Ġaus": 1742,
      "hold": 1743,
      "Ġduly": 1744,
      "Ġfoot": 1745,
      "Ġcreated": 1746,
      "iled": 1747,
      "Ġdhrisht": 1748,
      "ists": 1749,
      "Ġwhite": 1750,
      "after": 1751,
      "Ġsides": 1752,
      "Ġbelong": 1753,
      "Ġagreeable": 1754,
      "Ġ4": 1755,
      "su": 1756,
      "Ġbehove": 1757,
      "Ġsacrificial": 1758,
      "Ġabandon": 1759,
      "Ġtold": 1760,
      "ular": 1761,
      "Ġchar": 1762,
      "Ġcoun": 1763,
      "Ġencounter": 1764,
      "Ġaust": 1765,
      "cend": 1766,
      "Ġauspicious": 1767,
      "ng": 1768,
      "Ġattach": 1769,
      "Ġelse": 1770,
      "Ġsurrounded": 1771,
      "dha": 1772,
      "mon": 1773,
      "Ġhence": 1774,
      "oked": 1775,
      "upon": 1776,
      "ros": 1777,
      "Ġnone": 1778,
      "Ġpitris": 1779,
      "ike": 1780,
      "Ġswe": 1781,
      "Ġdue": 1782,
      "Ġmace": 1783,
      "reg": 1784,
      "Ġordin": 1785,
      "Ġemancipation": 1786,
      "Ġrepa": 1787,
      "Ġshar": 1788,
      "Ġsuta": 1789,
      "Ġsci": 1790,
      "Ġbehoveth": 1791,
      "Ġbring": 1792,
      "ured": 1793,
      "arma": 1794,
      "Ġsake": 1795,
      "Ġapproach": 1796,
      "Ġur": 1797,
      "Ġbehav": 1798,
      "Ġresembling": 1799,
      "Ġspirit": 1800,
      "adyumna": 1801,
      "Ġaccompan": 1802,
      "bed": 1803,
      "min": 1804,
      "Ġpandava": 1805,
      "Ġmost": 1806,
      "Ġign": 1807,
      "Ġindic": 1808,
      "Ġpurp": 1809,
      "Ġassum": 1810,
      "Ġpleasure": 1811,
      "Ġvanquished": 1812,
      "Ġcomment": 1813,
      "Ġfeet": 1814,
      "yasa": 1815,
      "Ġfam": 1816,
      "Ġsnakes": 1817,
      "Ġrepeatedly": 1818,
      "itation": 1819,
      "Ġsam": 1820,
      "Ġforms": 1821,
      "Ġwarrior": 1822,
      "ward": 1823,
      "Ġentire": 1824,
      "nect": 1825,
      "thy": 1826,
      "upadi": 1827,
      "Ġput": 1828,
      "Ġlives": 1829,
      "Ġtruly": 1830,
      "Ġfruit": 1831,
      "fulg": 1832,
      "jas": 1833,
      "ula": 1834,
      "Ġshot": 1835,
      "Ġshowers": 1836,
      "akas": 1837,
      "Ġleft": 1838,
      "ries": 1839,
      "Ġinter": 1840,
      "Ġholy": 1841,
      "retch": 1842,
      "ested": 1843,
      "ility": 1844,
      "Ġseemed": 1845,
      "Ġsakra": 1846,
      "Ġmiser": 1847,
      "Ġsure": 1848,
      "Ġopp": 1849,
      "Ġtir": 1850,
      "Ġlady": 1851,
      "Ġhostile": 1852,
      "Ġclean": 1853,
      "atas": 1854,
      "Ġrestrain": 1855,
      "bile": 1856,
      "iring": 1857,
      "Ġeffulg": 1858,
      "Ġreligion": 1859,
      "head": 1860,
      "ceived": 1861,
      "Ġwilt": 1862,
      "tras": 1863,
      "yed": 1864,
      "icity": 1865,
      "Ġunc": 1866,
      "Ġwonderful": 1867,
      "Ġsit": 1868,
      "Ġverse": 1869,
      "Ġduring": 1870,
      "Ġaccompanied": 1871,
      "Ġop": 1872,
      "Ġcor": 1873,
      "dh": 1874,
      "rings": 1875,
      "ivers": 1876,
      "Ġquest": 1877,
      "Ġpresence": 1878,
      "Ġnarayana": 1879,
      "Ġsharp": 1880,
      "ives": 1881,
      "Ġcontro": 1882,
      "urable": 1883,
      "Ġes": 1884,
      "Ġagni": 1885,
      "Ġdraupadi": 1886,
      "op": 1887,
      "Ġtree": 1888,
      "Ġeat": 1889,
      "reds": 1890,
      "Ġconnect": 1891,
      "Ġburn": 1892,
      "iers": 1893,
      "Ġdrink": 1894,
      "Ġwhatever": 1895,
      "Ġhundreds": 1896,
      "Ġsingle": 1897,
      "Ġlaid": 1898,
      "Ġrevere": 1899,
      "Ġash": 1900,
      "Ġshalt": 1901,
      "Ġdifferent": 1902,
      "Ġaddressing": 1903,
      "Ġprotected": 1904,
      "Ġtri": 1905,
      "ash": 1906,
      "Ġorn": 1907,
      "Ġdoing": 1908,
      "Ġrob": 1909,
      "Ġeye": 1910,
      "Ġrefle": 1911,
      "Ġyog": 1912,
      "Ġslew": 1913,
      "yudhishthira": 1914,
      "thus": 1915,
      "Ġshouldst": 1916,
      "Ġkripa": 1917,
      "Ġdhrishtadyumna": 1918,
      "Ġhur": 1919,
      "Ġtouch": 1920,
      "ples": 1921,
      "Ġrefu": 1922,
      "Ġinstru": 1923,
      "Ġganga": 1924,
      "irc": 1925,
      "Ġtoo": 1926,
      "Ġuna": 1927,
      "Ġaffection": 1928,
      "ism": 1929,
      "cting": 1930,
      "Ġarmed": 1931,
      "Ġattained": 1932,
      "Ġkins": 1933,
      "int": 1934,
      "Ġkes": 1935,
      "enty": 1936,
      "Ġresembled": 1937,
      "ten": 1938,
      "Ġresol": 1939,
      "Ġvo": 1940,
      "Ġvishnu": 1941,
      "ided": 1942,
      "Ġpain": 1943,
      "Ġkeen": 1944,
      "Ġsound": 1945,
      "Ġcertainly": 1946,
      "Ġdeeds": 1947,
      "Ġwel": 1948,
      "osed": 1949,
      "Ġconsum": 1950,
      "Ġmil": 1951,
      "ready": 1952,
      "ising": 1953,
      "Ġmed": 1954,
      "Ġvidura": 1955,
      "Ġface": 1956,
      "fied": 1957,
      "asts": 1958,
      "ali": 1959,
      "Ġconqu": 1960,
      "Ġmeet": 1961,
      "Ġfallen": 1962,
      "Ġignor": 1963,
      "thes": 1964,
      "Ġsage": 1965,
      "uted": 1966,
      "Ġdepend": 1967,
      "Ġmahadeva": 1968,
      "born": 1969,
      "Ġheads": 1970,
      "Ġsweet": 1971,
      "rest": 1972,
      "Ġdi": 1973,
      "Ġaround": 1974,
      ",--'": 1975,
      "Ġwoman": 1976,
      "hear": 1977,
      "sa": 1978,
      "Ġwield": 1979,
      "Ġste": 1980,
      "ressed": 1981,
      "Ġbrave": 1982,
      "ords": 1983,
      "Ġanything": 1984,
      "Ġfollowing": 1985,
      "Ġchariote": 1986,
      "Ġmark": 1987,
      "lled": 1988,
      "Ġprotection": 1989,
      "sanjaya": 1990,
      "this": 1991,
      "ils": 1992,
      "Ġsins": 1993,
      "Ġgolden": 1994,
      "Ġmatter": 1995,
      "then": 1996,
      "Ġcommentator": 1997,
      "aj": 1998,
      "iour": 1999,
      "ises": 2000,
      "Ġweak": 2001,
      "hus": 2002,
      "Ġreco": 2003,
      "Ġnamed": 2004,
      "Ġcirc": 2005,
      "Ġna": 2006,
      "rat": 2007,
      "Ġsank": 2008,
      "eness": 2009,
      "Ġaccomplished": 2010,
      "Ġexcited": 2011,
      "Ġbehaviour": 2012,
      "Ġacquired": 2013,
      "Ġgiving": 2014,
      "Ġdestroyed": 2015,
      "Ġwin": 2016,
      "Ġbes": 2017,
      "Ġmod": 2018,
      "Ġdead": 2019,
      "ific": 2020,
      "ÂĢ": 2021,
      "Ġboon": 2022,
      "ÂĢÂ": 2023,
      "Ġkrit": 2024,
      "Ġthereupon": 2025,
      "Ġsince": 2026,
      "Ġtimes": 2027,
      "Ġhearts": 2028,
      "opt": 2029,
      "ilar": 2030,
      "ution": 2031,
      "Ġoccasion": 2032,
      "ather": 2033,
      "Ġflowers": 2034,
      "Ġroar": 2035,
      "Ġconscious": 2036,
      "Ġdarkness": 2037,
      "Ġpassed": 2038,
      "Ġalready": 2039,
      "Ġincl": 2040,
      "wise": 2041,
      "outh": 2042,
      "itra": 2043,
      "Ġgone": 2044,
      "Ġdefe": 2045,
      "aff": 2046,
      "anyu": 2047,
      "ex": 2048,
      "Ġhar": 2049,
      "itude": 2050,
      "Ġasw": 2051,
      "Ġseiz": 2052,
      "Ġadopt": 2053,
      "Ġrid": 2054,
      "Ġdam": 2055,
      "ctive": 2056,
      "Ġriver": 2057,
      "Ġsleep": 2058,
      "Ġred": 2059,
      "ests": 2060,
      "hadeva": 2061,
      "ches": 2062,
      "Ġforg": 2063,
      "ored": 2064,
      "Ġgrant": 2065,
      "Ġmor": 2066,
      "Ġsubjects": 2067,
      "Ġscience": 2068,
      "iding": 2069,
      "Ġfort": 2070,
      "ainted": 2071,
      "ems": 2072,
      "Ġmom": 2073,
      "Ġalas": 2074,
      "Ġrefuge": 2075,
      ",âĢĿ": 2076,
      "Ġkauravas": 2077,
      "Ġreal": 2078,
      "Ġbearing": 2079,
      "Ġeither": 2080,
      "lying": 2081,
      "cks": 2082,
      "Ġaccount": 2083,
      "Ġsucceeds": 2084,
      "Ġren": 2085,
      "Ġbecause": 2086,
      "Ġnarada": 2087,
      "Ġsnake": 2088,
      "ement": 2089,
      "Ġroot": 2090,
      "Ġgrace": 2091,
      "Ġsimilar": 2092,
      "Ġfright": 2093,
      "asana": 2094,
      "meas": 2095,
      "though": 2096,
      "Ġtem": 2097,
      "Ġbirds": 2098,
      "gress": 2099,
      "Ġdom": 2100,
      "Ġanswered": 2101,
      "Ġorig": 2102,
      "leb": 2103,
      "Ġvers": 2104,
      "Ġlearning": 2105,
      "Ġorigin": 2106,
      "Ġast": 2107,
      "Ġcomes": 2108,
      "Ġceleb": 2109,
      "ges": 2110,
      "eswar": 2111,
      "Ġattains": 2112,
      "Ġexplained": 2113,
      "know": 2114,
      "Ġfled": 2115,
      "Ġmouth": 2116,
      "flu": 2117,
      "Ġwand": 2118,
      "Ġascend": 2119,
      "Ġvaisampayana": 2120,
      "ented": 2121,
      "Ġfeat": 2122,
      "Ġpoints": 2123,
      "kin": 2124,
      "atth": 2125,
      "Ġsky": 2126,
      "Ġreligious": 2127,
      "Ġkinsmen": 2128,
      "ale": 2129,
      "Ġreading": 2130,
      "aves": 2131,
      "Ġoffer": 2132,
      "Ġeffulgence": 2133,
      "Ġdoth": 2134,
      "Ġfault": 2135,
      "Ġimmeas": 2136,
      "ught": 2137,
      "ences": 2138,
      "Ġanx": 2139,
      "iling": 2140,
      "Ġgener": 2141,
      "Ġmail": 2142,
      "Ġfollowed": 2143,
      "Ġimmeasurable": 2144,
      "rad": 2145,
      "Ġve": 2146,
      "Ġstre": 2147,
      "atta": 2148,
      "Ġkesava": 2149,
      "Ġdivis": 2150,
      "Ġstrong": 2151,
      "Ġresc": 2152,
      "Ġaction": 2153,
      "orses": 2154,
      "Ġfound": 2155,
      "Ġnew": 2156,
      "Ġsan": 2157,
      "erved": 2158,
      "anu": 2159,
      "anda": 2160,
      "isting": 2161,
      "regard": 2162,
      "Ġhorses": 2163,
      "Ġfin": 2164,
      "asa": 2165,
      "Ġorders": 2166,
      "Ġdeer": 2167,
      "ately": 2168,
      "ship": 2169,
      "Ġadvan": 2170,
      "Ġpuissant": 2171,
      "Ġwork": 2172,
      "appe": 2173,
      "Ġlimbs": 2174,
      "him": 2175,
      "Ġsahadeva": 2176,
      "Ġguru": 2177,
      "cy": 2178,
      "Ġhair": 2179,
      "arman": 2180,
      "Ġnak": 2181,
      "Ġknowing": 2182,
      "Ġcreature": 2183,
      "avour": 2184,
      "Ġdear": 2185,
      "Ġoffered": 2186,
      "Ġcleansed": 2187,
      "having": 2188,
      "Ġid": 2189,
      "aments": 2190,
      "Ġcoming": 2191,
      "roud": 2192,
      "gs": 2193,
      "Ġmantras": 2194,
      "osition": 2195,
      "Ġapproached": 2196,
      "Ġmoment": 2197,
      "ken": 2198,
      "rect": 2199,
      "Ġfind": 2200,
      "Ġet": 2201,
      "let": 2202,
      "Ġoccur": 2203,
      "Ġwretch": 2204,
      "Ġdistress": 2205,
      "Ġpartic": 2206,
      "go": 2207,
      "Ġeight": 2208,
      "Ġspok": 2209,
      "iew": 2210,
      "Ġcombatants": 2211,
      "owed": 2212,
      "ixed": 2213,
      "dess": 2214,
      "gr": 2215,
      "pada": 2216,
      "Ġmass": 2217,
      "Ġmeas": 2218,
      "Ġobtaining": 2219,
      "Ġenemies": 2220,
      "Ġvast": 2221,
      "Ġstra": 2222,
      "Ġinsp": 2223,
      "ital": 2224,
      "Ġseems": 2225,
      "Ġenemy": 2226,
      "ifest": 2227,
      "uded": 2228,
      "Ġjo": 2229,
      "Ġqual": 2230,
      "Ġmerits": 2231,
      "Ġarrived": 2232,
      "ici": 2233,
      "Ġbhrig": 2234,
      "Ġfeel": 2235,
      "Ġpride": 2236,
      "Ġvanquish": 2237,
      "Ġfirmament": 2238,
      "Ġmisery": 2239,
      "Ġcharioteer": 2240,
      "sha": 2241,
      "Ġdispl": 2242,
      "Ġgoddess": 2243,
      "Ġport": 2244,
      "Ġglad": 2245,
      "Ġvali": 2246,
      "these": 2247,
      "Ġeld": 2248,
      "Ġanger": 2249,
      "cible": 2250,
      "Ġsinless": 2251,
      "Ġ5": 2252,
      "Ġkas": 2253,
      "Ġneither": 2254,
      "while": 2255,
      "Ġpowerful": 2256,
      "uri": 2257,
      "Ġfou": 2258,
      "Ġascetics": 2259,
      "erable": 2260,
      "Ġlost": 2261,
      "Ġcomplete": 2262,
      "Ġsolic": 2263,
      "Ġhill": 2264,
      "ults": 2265,
      "Ġindul": 2266,
      "Ġrelat": 2267,
      "oth": 2268,
      "Ġuse": 2269,
      "Ġhel": 2270,
      "Ġcontrol": 2271,
      "Ġage": 2272,
      "etim": 2273,
      "plend": 2274,
      "Ġparva": 2275,
      "Ġexistence": 2276,
      "Ġneed": 2277,
      "Ġalthough": 2278,
      "cient": 2279,
      "Ġdanavas": 2280,
      "Ġseated": 2281,
      "Ġsovere": 2282,
      "Ġvirata": 2283,
      "Ġetc": 2284,
      "und": 2285,
      "Ġsav": 2286,
      "Ġtwenty": 2287,
      "Ġstandard": 2288,
      "krit": 2289,
      "Ġhuge": 2290,
      "Ġlooking": 2291,
      "Ġinvin": 2292,
      "Ġperfect": 2293,
      "Ġresplend": 2294,
      "Ġauster": 2295,
      "Ġstay": 2296,
      "Ġverily": 2297,
      "Ġdiscourse": 2298,
      "Ġornaments": 2299,
      "Ġspoken": 2300,
      "Ġequi": 2301,
      "Ġfelicity": 2302,
      "Ġlion": 2303,
      "Ġdisregard": 2304,
      "Ġobl": 2305,
      "Ġperi": 2306,
      "Ġunable": 2307,
      "ison": 2308,
      "Ġgh": 2309,
      "ns": 2310,
      "Ġdestitute": 2311,
      "Ġquestion": 2312,
      "Ġinvincible": 2313,
      "ues": 2314,
      "Ġwives": 2315,
      "Ġsec": 2316,
      "when": 2317,
      "Ġdrupada": 2318,
      "Ġadh": 2319,
      "Ġhonour": 2320,
      "Ġmorality": 2321,
      "Ġnakula": 2322,
      "Ġhal": 2323,
      "Ġsho": 2324,
      "ission": 2325,
      "Ġstat": 2326,
      "Ġexert": 2327,
      "Ġconsciousness": 2328,
      "Ġsar": 2329,
      "antly": 2330,
      "Ġausterities": 2331,
      "Ġperiod": 2332,
      "Ġsy": 2333,
      "Ġsoma": 2334,
      "Ġsometim": 2335,
      "Ġarra": 2336,
      "Ġdispe": 2337,
      "Ġpractice": 2338,
      "Ġpanchalas": 2339,
      "Ġdread": 2340,
      "iety": 2341,
      "sels": 2342,
      "Ġintelligent": 2343,
      "Ġpast": 2344,
      "Ġview": 2345,
      "Ġrays": 2346,
      "Ġotherwise": 2347,
      "what": 2348,
      "Ġbeng": 2349,
      "ape": 2350,
      "Ġinn": 2351,
      "Ġread": 2352,
      "Ġrain": 2353,
      "Ġdisappe": 2354,
      "Ġplaced": 2355,
      "Ġgandiva": 2356,
      "Ġdecla": 2357,
      "act": 2358,
      "alk": 2359,
      "Ġdharma": 2360,
      "Ġacquire": 2361,
      "ended": 2362,
      "Ġbhrigu": 2363,
      "Ġcher": 2364,
      "Ġfool": 2365,
      "Ġhome": 2366,
      "Ġshower": 2367,
      "Ġbharatas": 2368,
      "Ġvais": 2369,
      "Ġhope": 2370,
      "ried": 2371,
      "isted": 2372,
      "Ġvyasa": 2373,
      "Ġdevotion": 2374,
      "Ġangry": 2375,
      "Ġpurpose": 2376,
      "wing": 2377,
      "Ġgems": 2378,
      "ploy": 2379,
      "ani": 2380,
      "Ġgrow": 2381,
      "Ġpuru": 2382,
      "Ġscor": 2383,
      "hearing": 2384,
      "ug": 2385,
      "Ġlying": 2386,
      "avat": 2387,
      "Ġmaid": 2388,
      "Ġthither": 2389,
      "Ġmonth": 2390,
      "Ġresplendent": 2391,
      "sp": 2392,
      "Ġsant": 2393,
      "adatta": 2394,
      "Ġunited": 2395,
      "bod": 2396,
      "Ġmot": 2397,
      "Ġleave": 2398,
      "Ġbroad": 2399,
      "Ġemploy": 2400,
      "Ġstudy": 2401,
      "Ġrivers": 2402,
      "where": 2403,
      "Ġtakes": 2404,
      "Ġwelkin": 2405,
      "Ġmilk": 2406,
      "Ġtirtha": 2407,
      "ia": 2408,
      "Ġris": 2409,
      "Ġmet": 2410,
      "Ġbows": 2411,
      "Ġmeaning": 2412,
      "ayas": 2413,
      "adh": 2414,
      "Ġdescend": 2415,
      "Ġappear": 2416,
      "00": 2417,
      "Ġspace": 2418,
      "Ġcovet": 2419,
      "Ġseason": 2420,
      "Ġsometimes": 2421,
      "teen": 2422,
      "ister": 2423,
      "Ġreceived": 2424,
      "Ġspoke": 2425,
      "illing": 2426,
      "Ġbowman": 2427,
      "Ġcasting": 2428,
      "Ġcrush": 2429,
      "Ġwhether": 2430,
      "himanyu": 2431,
      "bha": 2432,
      "Ġtear": 2433,
      "Ġcour": 2434,
      "Ġnear": 2435,
      "Ġprov": 2436,
      "aract": 2437,
      "ounded": 2438,
      "Ġprop": 2439,
      "icles": 2440,
      "Ġmanner": 2441,
      "Ġbowmen": 2442,
      "Ġacquis": 2443,
      "Ġcelebrated": 2444,
      "Ġyouth": 2445,
      "Ġcreator": 2446,
      "Ġbreath": 2447,
      "Ġkeep": 2448,
      "Ġparticular": 2449,
      "ich": 2450,
      "Ġbright": 2451,
      "Ġsea": 2452,
      "Ġcompassion": 2453,
      "sacrif": 2454,
      "Ġfought": 2455,
      "pati": 2456,
      "ush": 2457,
      "Ġcharact": 2458,
      "Ġsudden": 2459,
      "Ġcruel": 2460,
      "fluence": 2461,
      "rut": 2462,
      "Ġlib": 2463,
      "Ġunivers": 2464,
      "Ġpenet": 2465,
      "Ġremem": 2466,
      "Ġfraught": 2467,
      "erous": 2468,
      "Ġprom": 2469,
      "Ġlove": 2470,
      "Ġurged": 2471,
      "ets": 2472,
      "ita": 2473,
      "Ġimmo": 2474,
      "Ġhurled": 2475,
      "Ġair": 2476,
      "Ġimpet": 2477,
      "llect": 2478,
      "Ġacquainted": 2479,
      "Ġpoison": 2480,
      "Ġignorance": 2481,
      "Ġcreation": 2482,
      "Ġrespective": 2483,
      "Ġjay": 2484,
      "Ġsought": 2485,
      "Ġlonger": 2486,
      "Ġdestroyer": 2487,
      "bly": 2488,
      "viz": 2489,
      "Ġancient": 2490,
      "ikhand": 2491,
      "Ġchastiser": 2492,
      "Ġuttering": 2493,
      "restrain": 2494,
      "Ġqualities": 2495,
      "az": 2496,
      "Ġhold": 2497,
      "arna": 2498,
      "Ġabhimanyu": 2499,
      "Ġrudra": 2500,
      "Ġshaft": 2501,
      "Ġjanard": 2502,
      "og": 2503,
      "Ġest": 2504,
      "Ġpie": 2505,
      "Ġassembly": 2506,
      "orious": 2507,
      "Ġdesires": 2508,
      "Ġbroken": 2509,
      "Ġrelatives": 2510,
      "come": 2511,
      "alg": 2512,
      "ishtha": 2513,
      "Ġconsid": 2514,
      "Ġavo": 2515,
      "headed": 2516,
      "Ġcharacter": 2517,
      "!\"": 2518,
      "Ġyield": 2519,
      "Ġpleased": 2520,
      "Ġspeedily": 2521,
      "from": 2522,
      "vel": 2523,
      "Ġcap": 2524,
      "Ġlay": 2525,
      "nty": 2526,
      "ignty": 2527,
      "Ġcol": 2528,
      "Ġappla": 2529,
      "Ġdriver": 2530,
      "Ġstu": 2531,
      "Ġbegin": 2532,
      "Ġgoing": 2533,
      "bol": 2534,
      "Ġsovereignty": 2535,
      "Ġser": 2536,
      "Ġbed": 2537,
      "Ġtrib": 2538,
      "ral": 2539,
      "Ġje": 2540,
      "Ġsalut": 2541,
      "Ġspiritual": 2542,
      "Ġsri": 2543,
      "aman": 2544,
      "Ġflesh": 2545,
      "Ġprinces": 2546,
      "Ġwait": 2547,
      "Ġkal": 2548,
      "ip": 2549,
      "Ġasura": 2550,
      "Ġforces": 2551,
      "aken": 2552,
      "ciation": 2553,
      "rent": 2554,
      "Ġfat": 2555,
      "odara": 2556,
      "aksha": 2557,
      "Ġapproaching": 2558,
      "Ġvoice": 2559,
      "Ġdar": 2560,
      "Ġmonarchs": 2561,
      "Ġreverence": 2562,
      "edi": 2563,
      "Ġmode": 2564,
      "Ġlad": 2565,
      "Ġrequ": 2566,
      "Ġworthy": 2567,
      "Ġconstit": 2568,
      "Ġfurn": 2569,
      "Ġir": 2570,
      "Ġsubs": 2571,
      "Ġdepart": 2572,
      "Ġdelightful": 2573,
      "Ġesc": 2574,
      "ough": 2575,
      "Ġpol": 2576,
      "Ġlake": 2577,
      "Ġasc": 2578,
      "uka": 2579,
      "ÂĢÂĻ": 2580,
      "Ġequipped": 2581,
      "inda": 2582,
      "Ġagit": 2583,
      "Ġdreadful": 2584,
      "oses": 2585,
      "Ġpiercing": 2586,
      "Ġrepres": 2587,
      "Ġnames": 2588,
      "waja": 2589,
      "Ġhell": 2590,
      "amb": 2591,
      "Ġabs": 2592,
      "haspati": 2593,
      "Ġreturned": 2594,
      "Ġvrik": 2595,
      "Ġcalam": 2596,
      "Ġgarl": 2597,
      "ross": 2598,
      "sasana": 2599,
      "Ġabove": 2600,
      "Ġattaining": 2601,
      "Ġbengal": 2602,
      "val": 2603,
      "anti": 2604,
      "izens": 2605,
      "Ġhandsome": 2606,
      "Ġthinking": 2607,
      "!âĢĿ": 2608,
      "mission": 2609,
      "Ġdart": 2610,
      "iti": 2611,
      "haust": 2612,
      "Ġfalling": 2613,
      "do": 2614,
      "hya": 2615,
      "like": 2616,
      "Ġnil": 2617,
      "Ġund": 2618,
      "Ġdesp": 2619,
      "Ġclass": 2620,
      "Ġstupe": 2621,
      "ukt": 2622,
      "adratha": 2623,
      "Ġstraight": 2624,
      "Ġhalf": 2625,
      "Ġpoured": 2626,
      "aining": 2627,
      "apa": 2628,
      "Ġenqu": 2629,
      "Ġfaith": 2630,
      "tingu": 2631,
      "Ġpractices": 2632,
      "Ġwishes": 2633,
      "Ġobservance": 2634,
      "Ġconcl": 2635,
      "Ġcountry": 2636,
      "Ġassembled": 2637,
      "nis": 2638,
      "Ġsrut": 2639,
      "Ġtreat": 2640,
      "Ġseat": 2641,
      "Ġfact": 2642,
      "Ġnumerous": 2643,
      "Ġeffect": 2644,
      "Ġphys": 2645,
      "Ġsent": 2646,
      "Ġwon": 2647,
      "Ġmorn": 2648,
      "idd": 2649,
      "Ġdeta": 2650,
      "Ġperforming": 2651,
      "Ġachieved": 2652,
      "idence": 2653,
      "Ġbhag": 2654,
      "Ġprev": 2655,
      "Ġproceeding": 2656,
      "Ġforgiv": 2657,
      "adwaja": 2658,
      "Ġhist": 2659,
      "Ġacquisition": 2660,
      "ls": 2661,
      "mble": 2662,
      "Ġhun": 2663,
      "Ġloss": 2664,
      "Ġjiva": 2665,
      "Ġgratif": 2666,
      "Ġpour": 2667,
      "acha": 2668,
      "ranqu": 2669,
      "Ġsmall": 2670,
      "Ġmadhu": 2671,
      "Ġsudra": 2672,
      "Ġcircum": 2673,
      "hood": 2674,
      "Ġsind": 2675,
      "Ġtranqu": 2676,
      "Ġdirections": 2677,
      "Ġconnection": 2678,
      "known": 2679,
      "orted": 2680,
      "Ġlau": 2681,
      "Ġcompet": 2682,
      "Ġchastis": 2683,
      "Ġwrong": 2684,
      "Ġban": 2685,
      "Ġlu": 2686,
      "Ġcurse": 2687,
      "Ġmater": 2688,
      "Ġuniversal": 2689,
      "Ġsrin": 2690,
      "Ġstanding": 2691,
      "Ġbutter": 2692,
      "Ġdice": 2693,
      "ityas": 2694,
      "amejaya": 2695,
      "Ġcompan": 2696,
      "Ġglory": 2697,
      "Ġkritav": 2698,
      "Ġconch": 2699,
      "Ġordained": 2700,
      "Ġfeats": 2701,
      "Ġlibations": 2702,
      "Ġascertain": 2703,
      "Ġgir": 2704,
      "Ġprincess": 2705,
      "Ġembod": 2706,
      "Ġstatus": 2707,
      "bolt": 2708,
      "ini": 2709,
      "Ġhy": 2710,
      "Ġgiver": 2711,
      "Ġchit": 2712,
      "law": 2713,
      "Ġunf": 2714,
      "anks": 2715,
      "Ġident": 2716,
      "Ġvrikodara": 2717,
      "Ġthrow": 2718,
      "iny": 2719,
      "enced": 2720,
      "Ġmakes": 2721,
      "Ġheld": 2722,
      "Ġhadst": 2723,
      "Ġmadras": 2724,
      "Ġobservant": 2725,
      "Ġmorning": 2726,
      "Ġappeared": 2727,
      "Ġdisciples": 2728,
      "Ġpal": 2729,
      "Ġproc": 2730,
      "sold": 2731,
      "Ġfollowers": 2732,
      "Ġcommit": 2733,
      "Ġgrieve": 2734,
      "Ġmis": 2735,
      "osity": 2736,
      "han": 2737,
      "Ġround": 2738,
      "itness": 2739,
      "Ġbrahmach": 2740,
      "Ġfair": 2741,
      "fort": 2742,
      "abl": 2743,
      "Ġvisw": 2744,
      "Ġpoint": 2745,
      "body": 2746,
      "Ġjanardana": 2747,
      "Ġhue": 2748,
      "ond": 2749,
      "hab": 2750,
      "Ġnecess": 2751,
      "whel": 2752,
      "Ġretreat": 2753,
      "Ġbulls": 2754,
      "Ġvaruna": 2755,
      "Ġsupport": 2756,
      "Ġyuga": 2757,
      "Ġshort": 2758,
      "Ġburning": 2759,
      "Ġveh": 2760,
      "Ġshoot": 2761,
      "soldiers": 2762,
      "Ġ6": 2763,
      "Ġwings": 2764,
      "Ġbran": 2765,
      "Ġdescri": 2766,
      "Ġsurya": 2767,
      "Ġfamily": 2768,
      ",'": 2769,
      "Ġsuk": 2770,
      "Ġbehind": 2771,
      "Ġarmour": 2772,
      "Ġyoung": 2773,
      "edd": 2774,
      "Ġcase": 2775,
      "Ġmal": 2776,
      "umerable": 2777,
      "Ġsouls": 2778,
      "Ġsword": 2779,
      "Ġenter": 2780,
      "ending": 2781,
      "Ġvrishni": 2782,
      "Ġlow": 2783,
      "Ġlust": 2784,
      "Ġiron": 2785,
      "Ġoverwhel": 2786,
      "Ġbelonging": 2787,
      "Ġsantanu": 2788,
      "wan": 2789,
      "Ġfighting": 2790,
      "Ġcheerless": 2791,
      "Ġanxiety": 2792,
      "Ġjayadratha": 2793,
      "reh": 2794,
      "Ġpala": 2795,
      "Ġadored": 2796,
      "Ġassa": 2797,
      "Ġdeeply": 2798,
      "Ġbeneficial": 2799,
      "Ġhither": 2800,
      "ater": 2801,
      "uring": 2802,
      "Ġbharadwaja": 2803,
      "Ġhappy": 2804,
      "Ġfurnished": 2805,
      "Ġsrad": 2806,
      "Ġfavour": 2807,
      "Ġprotecting": 2808,
      "medi": 2809,
      "Ġinnumerable": 2810,
      "con": 2811,
      "ukteswar": 2812,
      "Ġcompetent": 2813,
      "gu": 2814,
      "jug": 2815,
      "ually": 2816,
      "Ġom": 2817,
      "Ġfar": 2818,
      "eless": 2819,
      "ĠâĢĺ": 2820,
      "erving": 2821,
      "Ġplaces": 2822,
      "Ġpanc": 2823,
      "Ġsuddenly": 2824,
      "Ġpun": 2825,
      "Ġrend": 2826,
      "ural": 2827,
      "Ġobserving": 2828,
      "Ġwitness": 2829,
      "ghtered": 2830,
      "amv": 2831,
      "Ġsubjug": 2832,
      "Ġfelt": 2833,
      "hava": 2834,
      "vered": 2835,
      "Ġfal": 2836,
      "oma": 2837,
      "omb": 2838,
      "erest": 2839,
      "Ġvedic": 2840,
      "ror": 2841,
      "Ġyukteswar": 2842,
      "Ġherself": 2843,
      "Ġtransl": 2844,
      "spring": 2845,
      "Ġ7": 2846,
      "Ġreally": 2847,
      "Ġliber": 2848,
      "formed": 2849,
      "anka": 2850,
      "Ġofferings": 2851,
      "Ġrajas": 2852,
      "aste": 2853,
      "Ġador": 2854,
      "pping": 2855,
      "Ġattached": 2856,
      "Ġincre": 2857,
      "Ġpuri": 2858,
      "Ġdece": 2859,
      "termin": 2860,
      "Ġrule": 2861,
      "Ġshalya": 2862,
      "Ġinjury": 2863,
      "Ġcorrect": 2864,
      "Ġimmobile": 2865,
      "Ġperpet": 2866,
      "Ġgrass": 2867,
      "Ġtreas": 2868,
      "kriti": 2869,
      "Ġexertion": 2870,
      "Ġscorch": 2871,
      "Ġhour": 2872,
      "Ġstory": 2873,
      "Ġvasava": 2874,
      "Ġdisciple": 2875,
      "Ġsaras": 2876,
      "Ġdus": 2877,
      "Ġreached": 2878,
      "Ġsped": 2879,
      "Ġvrihaspati": 2880,
      "Ġarray": 2881,
      "Ġfalse": 2882,
      "Ġfut": 2883,
      "akan": 2884,
      "Ġmang": 2885,
      "etra": 2886,
      "Ġcheerful": 2887,
      "Ġmahas": 2888,
      "Ġremember": 2889,
      "Ġbomb": 2890,
      "Ġcries": 2891,
      "Ġment": 2892,
      "uda": 2893,
      "Ġoffspring": 2894,
      "Ġleaving": 2895,
      "Ġasceticism": 2896,
      "ably": 2897,
      "Ġmeasure": 2898,
      "inite": 2899,
      "Ġfast": 2900,
      "asons": 2901,
      "ounding": 2902,
      "Ġslaughtered": 2903,
      "Ġanswer": 2904,
      "read": 2905,
      "rung": 2906,
      "Ġunderstand": 2907,
      "Ġbesides": 2908,
      "Ġfortun": 2909,
      "atthaman": 2910,
      "erence": 2911,
      "Ġresult": 2912,
      "Ġeldest": 2913,
      "Ġbeginning": 2914,
      "Ġaps": 2915,
      "Ġphalg": 2916,
      "Ġsimilarly": 2917,
      "Ġdisplay": 2918,
      "Ġghat": 2919,
      "there": 2920,
      "Ġhard": 2921,
      "ones": 2922,
      "Ġcent": 2923,
      "rose": 2924,
      "Ġseed": 2925,
      "Ġsever": 2926,
      "Ġsepar": 2927,
      "Ġhermit": 2928,
      "Ġmoved": 2929,
      "Ġturned": 2930,
      "rate": 2931,
      "ern": 2932,
      "aps": 2933,
      "Ġdise": 2934,
      "Ġsubh": 2935,
      "arent": 2936,
      "ster": 2937,
      "Ġstation": 2938,
      "Ġmans": 2939,
      "Ġdeserve": 2940,
      "Ġpermission": 2941,
      "Ġmobile": 2942,
      "righteous": 2943,
      "Ġpalace": 2944,
      "Ġbombay": 2945,
      "ators": 2946,
      "Ġfish": 2947,
      "amed": 2948,
      "Ġwash": 2949,
      "Ġflow": 2950,
      "Ġfully": 2951,
      "Ġenjoyment": 2952,
      "Ġwielder": 2953,
      "Ġtears": 2954,
      "oin": 2955,
      "Ġfixed": 2956,
      "Ġattention": 2957,
      "Ġfew": 2958,
      "Ġestabl": 2959,
      "Ġladies": 2960,
      "akantha": 2961,
      "Ġmahasaya": 2962,
      "ti": 2963,
      "Ġready": 2964,
      "Ġsprung": 2965,
      "Ġdestiny": 2966,
      "Ġillusion": 2967,
      "Ġgandhari": 2968,
      "Ġformerly": 2969,
      "Ġawful": 2970,
      "Ġarose": 2971,
      "Ġmeat": 2972,
      "Ġtwel": 2973,
      "Ġprakriti": 2974,
      "Ġcloth": 2975,
      "!'\"": 2976,
      "Ġemployed": 2977,
      "Ġbrahmachar": 2978,
      "bers": 2979,
      "Ġbri": 2980,
      "Ġnala": 2981,
      "Ġopen": 2982,
      "Ġdespat": 2983,
      "ines": 2984,
      "Ġsaint": 2985,
      "Ġradha": 2986,
      "ception": 2987,
      "Ġlaw": 2988,
      "Ġvaliant": 2989,
      "Ġnilakantha": 2990,
      "eyed": 2991,
      "otk": 2992,
      "Ġsevere": 2993,
      "ili": 2994,
      "Ġvirtues": 2995,
      "Ġstandards": 2996,
      "Ġliter": 2997,
      "Ġagitated": 2998,
      ".âĢĻ": 2999,
      "bl": 3000,
      "oved": 3001,
      "inion": 3002,
      "Ġsave": 3003,
      "Ġyore": 3004,
      "Ġelements": 3005,
      "Ġcomplex": 3006,
      "Ġsubhadra": 3007,
      ".--": 3008,
      "Ġembra": 3009,
      "affled": 3010,
      "Ġlaugh": 3011,
      "Ġmention": 3012,
      "ceive": 3013,
      "Ġdesired": 3014,
      "Ġlived": 3015,
      "Ġtigers": 3016,
      "hiri": 3017,
      "Ġgarlands": 3018,
      "adas": 3019,
      "ouses": 3020,
      "Ġnoise": 3021,
      "Ġfaults": 3022,
      "Ġacquires": 3023,
      "rasena": 3024,
      "Ġbecoming": 3025,
      "Ġcit": 3026,
      "Ġarri": 3027,
      "anta": 3028,
      "Ġunrighteous": 3029,
      "unciation": 3030,
      "Ġfearless": 3031,
      "Ġhappened": 3032,
      "Ġcheerfully": 3033,
      "Ġbathing": 3034,
      "Ġhistory": 3035,
      "thas": 3036,
      "rew": 3037,
      "Ġbestow": 3038,
      "Ġprofit": 3039,
      "Ġstream": 3040,
      "Ġinspired": 3041,
      "oc": 3042,
      "Ġdust": 3043,
      "Ġvrit": 3044,
      "Ġpractise": 3045,
      "Ġrobes": 3046,
      "Ġhermitage": 3047,
      "Ġcall": 3048,
      "Ġclad": 3049,
      "Ġrecited": 3050,
      "Ġrushing": 3051,
      "Ġjoined": 3052,
      "Ġcherish": 3053,
      "Ġtheirs": 3054,
      "Ġconstitute": 3055,
      "Ġuncle": 3056,
      "Ġaswatthaman": 3057,
      "Ġdetail": 3058,
      "yl": 3059,
      "Ġprish": 3060,
      "ila": 3061,
      "Ġplan": 3062,
      "Ġportion": 3063,
      "Ġmus": 3064,
      "Ġghatotk": 3065,
      "vana": 3066,
      "get": 3067,
      "Ġpriest": 3068,
      "Ġexplains": 3069,
      "Ġjanamejaya": 3070,
      "Ġabandoning": 3071,
      "Ġdrag": 3072,
      "Ġburd": 3073,
      "dhritarashtra": 3074,
      "Ġbranches": 3075,
      "Ġoverwhelmed": 3076,
      "his": 3077,
      "Ġder": 3078,
      "Ġpa": 3079,
      "Ġsuv": 3080,
      "akra": 3081,
      "âĢĺ": 3082,
      "laim": 3083,
      "Ġobedi": 3084,
      "Ġstriking": 3085,
      "sued": 3086,
      "Ġsour": 3087,
      "Ġmain": 3088,
      "Ġget": 3089,
      "Ġreach": 3090,
      "uding": 3091,
      "Ġindia": 3092,
      "Ġtruthful": 3093,
      "sacrifice": 3094,
      "Ġchastisement": 3095,
      "oun": 3096,
      "Ġdro": 3097,
      "Ġattend": 3098,
      "ĠâĢľâĢĺ": 3099,
      "Ġovert": 3100,
      "Ġentertain": 3101,
      "retched": 3102,
      "Ġmeditation": 3103,
      "Ġmaiden": 3104,
      "Ġjew": 3105,
      "vinda": 3106,
      "Ġed": 3107,
      "Ġgaz": 3108,
      "Ġwithdra": 3109,
      "Ġwelf": 3110,
      "Ġresolved": 3111,
      "Ġroots": 3112,
      "Ġwelfare": 3113,
      "ination": 3114,
      "Ġkne": 3115,
      "ivity": 3116,
      "Ġmadhava": 3117,
      "Ġgrandson": 3118,
      "Ġattribute": 3119,
      "Ġdefeat": 3120,
      "ikhandin": 3121,
      "my": 3122,
      "ative": 3123,
      "lling": 3124,
      "Ġformed": 3125,
      "Ġtrun": 3126,
      "Ġheaded": 3127,
      "Ġdrawn": 3128,
      "Ġproperly": 3129,
      "Ġthirst": 3130,
      "yapa": 3131,
      "Ġthick": 3132,
      "cho": 3133,
      "akshas": 3134,
      "Ġduh": 3135,
      "Ġdanger": 3136,
      "Ġsummon": 3137,
      "Ġirres": 3138,
      "Ġer": 3139,
      "Ġess": 3140,
      "Ġwest": 3141,
      "Ġwant": 3142,
      "Ġmats": 3143,
      "Ġtown": 3144,
      "Ġalive": 3145,
      "Ġmyster": 3146,
      "Ġ19": 3147,
      "Ġblack": 3148,
      "Ġhonoured": 3149,
      "Ġrepair": 3150,
      "Ġdivision": 3151,
      "Ġghatotkacha": 3152,
      "Ġden": 3153,
      "stances": 3154,
      "Ġexer": 3155,
      "Ġunman": 3156,
      "Ġplay": 3157,
      "Ġguests": 3158,
      "ages": 3159,
      "Ġskilled": 3160,
      "ration": 3161,
      "itions": 3162,
      "Ġyad": 3163,
      "Ġrun": 3164,
      "Ġroars": 3165,
      "Ġpraise": 3166,
      "Ġvasishtha": 3167,
      "Ġwoe": 3168,
      "Ġsalya": 3169,
      "Ġpassion": 3170,
      "Ġconcent": 3171,
      "Ġyuy": 3172,
      "Ġmangled": 3173,
      "Ġvritra": 3174,
      "Ġwild": 3175,
      "chi": 3176,
      "Ġsport": 3177,
      "Ġmayst": 3178,
      "Ġhereafter": 3179,
      "Ġgives": 3180,
      "Ġcommanded": 3181,
      "Ġhym": 3182,
      "Ġsign": 3183,
      "Ġsikhandin": 3184,
      "outs": 3185,
      "Ġcens": 3186,
      "Ġmess": 3187,
      "Ġinhab": 3188,
      "Ġgot": 3189,
      "ruct": 3190,
      "Ġpresents": 3191,
      "Ġdream": 3192,
      "Ġpuissance": 3193,
      "Ġcrowned": 3194,
      "Ġrenunciation": 3195,
      "mer": 3196,
      "Ġasyl": 3197,
      "amas": 3198,
      "Ġspec": 3199,
      "Ġasylum": 3200,
      "Ġsen": 3201,
      "Ġsounds": 3202,
      "Ġregarding": 3203,
      "Ġsuffer": 3204,
      "how": 3205,
      "rep": 3206,
      "onine": 3207,
      "Ġfif": 3208,
      "Ġka": 3209,
      "Ġsages": 3210,
      "amad": 3211,
      "Ġstaying": 3212,
      "Ġexists": 3213,
      "Ġcompany": 3214,
      "Ġpurity": 3215,
      "Ġdistin": 3216,
      "Ġhousehold": 3217,
      "Ġcomplexion": 3218,
      "Ġprishata": 3219,
      "Ġsister": 3220,
      "arjuna": 3221,
      "inded": 3222,
      "Ġleonine": 3223,
      "Ġcounse": 3224,
      "Ġhelp": 3225,
      "?âĢĿ": 3226,
      "Ġexper": 3227,
      "Ġdisch": 3228,
      "Ġquar": 3229,
      "Ġrecite": 3230,
      "Ġlahiri": 3231,
      "Ġmarut": 3232,
      "Ġfoolish": 3233,
      "Ġcovetous": 3234,
      "tinguished": 3235,
      "Ġirresist": 3236,
      "eya": 3237,
      "Ġfem": 3238,
      "Ġeas": 3239,
      "iras": 3240,
      "Ġyakshas": 3241,
      "Ġgreater": 3242,
      "Ġobtaineth": 3243,
      "Ġcouple": 3244,
      "Ġsindhus": 3245,
      "Ġaim": 3246,
      "ining": 3247,
      "Ġbaffled": 3248,
      "Ġpati": 3249,
      "Ġrev": 3250,
      "Ġyoun": 3251,
      "Ġincur": 3252,
      "Ġdivested": 3253,
      "Ġirresistible": 3254,
      "cest": 3255,
      "Ġsold": 3256,
      "Ġsus": 3257,
      "Ġextermin": 3258,
      "Ġunion": 3259,
      "isters": 3260,
      "Ġviol": 3261,
      "Ġpray": 3262,
      "Ġclose": 3263,
      "Ġremain": 3264,
      "Ġrules": 3265,
      "Ġsakuni": 3266,
      "Ġthunderbolt": 3267,
      "Ġseized": 3268,
      "Ġcourt": 3269,
      "Ġyounger": 3270,
      "com": 3271,
      "gg": 3272,
      "Ġbu": 3273,
      "arified": 3274,
      "lly": 3275,
      "Ġnish": 3276,
      "Ġvital": 3277,
      "Ġshouts": 3278,
      "Ġswords": 3279,
      "ĠĠĠĠ": 3280,
      "Ġmadri": 3281,
      "Ġinfinite": 3282,
      "Ġfuture": 3283,
      "Ġapsaras": 3284,
      "ointed": 3285,
      "we": 3286,
      "Ġbore": 3287,
      "Ġrig": 3288,
      "restraint": 3289,
      "Ġcalamity": 3290,
      "Ġtwelve": 3291,
      "vi": 3292,
      "xts": 3293,
      "Ġfu": 3294,
      "Ġdas": 3295,
      "Ġland": 3296,
      "Ġlords": 3297,
      "Ġredu": 3298,
      "Ġchest": 3299,
      "atha": 3300,
      "Ġevening": 3301,
      "Ġdidst": 3302,
      "Ġdwelling": 3303,
      "Ġcounsels": 3304,
      "Ġhind": 3305,
      "Ġtas": 3306,
      "Ġheat": 3307,
      "Ġvik": 3308,
      "Ġcover": 3309,
      "Ġclarified": 3310,
      "Ġsucceeded": 3311,
      "Ġservants": 3312,
      "Ġbathed": 3313,
      "husha": 3314,
      "Ġadvanced": 3315,
      "Ġcro": 3316,
      "ange": 3317,
      "Ġpi": 3318,
      "Ġwhence": 3319,
      "Ġnag": 3320,
      "Ġshare": 3321,
      "Ġcutting": 3322,
      "Ġforgiveness": 3323,
      "ina": 3324,
      "ads": 3325,
      "Ġgreatly": 3326,
      "Ġourselves": 3327,
      "Ġtexts": 3328,
      "Ġdaityas": 3329,
      "dy": 3330,
      "fic": 3331,
      "Ġdie": 3332,
      "ram": 3333,
      "ami": 3334,
      "Ġanimal": 3335,
      "Ġpanchala": 3336,
      "Ġstupefied": 3337,
      "Ġsway": 3338,
      "Ġmuni": 3339,
      "Ġinfluence": 3340,
      "rid": 3341,
      "Ġchand": 3342,
      "Ġfaces": 3343,
      "Ġheavy": 3344,
      "Ġachieve": 3345,
      "Ġthird": 3346,
      "Ġsurely": 3347,
      "Ġsalutations": 3348,
      "Ġburdwan": 3349,
      "Ġunmanifest": 3350,
      "ident": 3351,
      "Ġimmedi": 3352,
      "Ġbegot": 3353,
      "Ġtranscend": 3354,
      "Ġsitting": 3355,
      "ners": 3356,
      "Ġsatt": 3357,
      "isible": 3358,
      "Ġeating": 3359,
      "Ġsini": 3360,
      "who": 3361,
      "Ġpractising": 3362,
      "Ġimmort": 3363,
      "Ġburnt": 3364,
      "Ġ8": 3365,
      "Ġyaj": 3366,
      "ostly": 3367,
      "Ġarrowy": 3368,
      "Ġcauses": 3369,
      "Ġbreast": 3370,
      "ification": 3371,
      "Ġdeclared": 3372,
      "Ġescape": 3373,
      "Ġseveral": 3374,
      "Ġcounsell": 3375,
      "unt": 3376,
      "avati": 3377,
      "andha": 3378,
      "ivid": 3379,
      "Ġhimavat": 3380,
      "Ġexcept": 3381,
      "Ġboons": 3382,
      "Ġeverywhere": 3383,
      "Ġqueen": 3384,
      "Ġflam": 3385,
      "Ġprotector": 3386,
      "Ġunderstood": 3387,
      "behold": 3388,
      "Ġkasyapa": 3389,
      "Ġluck": 3390,
      "Ġshooting": 3391,
      "Ġproud": 3392,
      "Ġentering": 3393,
      "Ġteach": 3394,
      "Ġbar": 3395,
      "rage": 3396,
      "andeya": 3397,
      "icious": 3398,
      "Ġcloud": 3399,
      "Ġgrand": 3400,
      "Ġcurrent": 3401,
      "Ġsolicit": 3402,
      "Ġisl": 3403,
      "Ġvibh": 3404,
      "Ġrose": 3405,
      "Ġpursu": 3406,
      "Ġmeanwhile": 3407,
      "Ġkaurava": 3408,
      "Ġdomest": 3409,
      "Ġhills": 3410,
      "Ġlances": 3411,
      "Ġshroud": 3412,
      "astya": 3413,
      "Ġju": 3414,
      "Ġjud": 3415,
      "Ġende": 3416,
      "Ġnahusha": 3417,
      "Ġdarts": 3418,
      "Ġrendered": 3419,
      "van": 3420,
      "Ġarticles": 3421,
      "Ġperformance": 3422,
      "Ġsmil": 3423,
      "Ġphysical": 3424,
      "yond": 3425,
      "Ġwing": 3426,
      "elling": 3427,
      "Ġplun": 3428,
      "bra": 3429,
      "Ġthing": 3430,
      "Ġfle": 3431,
      "Ġfires": 3432,
      "itable": 3433,
      "Ġlament": 3434,
      "riv": 3435,
      "Ġmanu": 3436,
      "Ġobst": 3437,
      "Ġgaruda": 3438,
      "Ġreflecting": 3439,
      "Ġmodes": 3440,
      "Ġadvancing": 3441,
      "Ġmotion": 3442,
      "Ġtranquill": 3443,
      "Ġgirl": 3444,
      "Ġdespatched": 3445,
      "Ġrigid": 3446,
      "Ġtrain": 3447,
      "Ġgaut": 3448,
      "Ġsust": 3449,
      "amitra": 3450,
      "Ġaff": 3451,
      "ler": 3452,
      "reath": 3453,
      "Ġhid": 3454,
      "ric": 3455,
      "cts": 3456,
      "Ġsearch": 3457,
      "Ġorg": 3458,
      "Ġacquiring": 3459,
      "Ġdelay": 3460,
      "Ġborne": 3461,
      "Ġsilent": 3462,
      "fa": 3463,
      "Ġpowers": 3464,
      "istent": 3465,
      "Ġhigher": 3466,
      "Ġobserved": 3467,
      "Ġstrike": 3468,
      "Ġaccomplishment": 3469,
      "Ġphalguna": 3470,
      "nding": 3471,
      "Ġbad": 3472,
      "Ġpay": 3473,
      "uman": 3474,
      "Ġsubt": 3475,
      "ites": 3476,
      "riage": 3477,
      "ayati": 3478,
      "Ġconce": 3479,
      "umin": 3480,
      "elt": 3481,
      "Ġimpl": 3482,
      "Ġleading": 3483,
      "Ġtrust": 3484,
      "Ġdestroying": 3485,
      "Ġimport": 3486,
      "Ġmun": 3487,
      "Ġbeyond": 3488,
      "Ġnine": 3489,
      "Ġobtains": 3490,
      "Ġblow": 3491,
      "Ġbird": 3492,
      "Ġbetter": 3493,
      "Ġremained": 3494,
      "Ġconquered": 3495,
      "Ġrescue": 3496,
      "Ġfatig": 3497,
      "Ġwedd": 3498,
      "Ġfur": 3499,
      "Ġtaste": 3500,
      "Ġmatt": 3501,
      "Ġmort": 3502,
      "aring": 3503,
      "asp": 3504,
      "Ġancest": 3505,
      "Ġspring": 3506,
      "Ġtwins": 3507,
      "Ġworldly": 3508,
      "Ġmaces": 3509,
      "pared": 3510,
      "rying": 3511,
      "Ġparts": 3512,
      "Ġwheel": 3513,
      "Ġordinances": 3514,
      "Ġcompanion": 3515,
      "Ġpancalas": 3516,
      "ases": 3517,
      "avana": 3518,
      "Ġstars": 3519,
      "rang": 3520,
      "Ġtremb": 3521,
      "Ġdisposition": 3522,
      "Ġdivisions": 3523,
      "Ġtranquillity": 3524,
      "uth": 3525,
      "Ġfit": 3526,
      "Ġvig": 3527,
      "Ġsand": 3528,
      "icated": 3529,
      "ulf": 3530,
      "allen": 3531,
      "Ġrich": 3532,
      "Ġbliss": 3533,
      "Ġproductive": 3534,
      "Ġapplauded": 3535,
      "Ġprevious": 3536,
      "Ġexperi": 3537,
      "Ġsoldiers": 3538,
      "cer": 3539,
      "ead": 3540,
      "wor": 3541,
      "Ġbanks": 3542,
      "Ġwide": 3543,
      "Ġled": 3544,
      "Ġheed": 3545,
      "icy": 3546,
      "Ġsex": 3547,
      "etted": 3548,
      "Ġactivity": 3549,
      "Ġconsisting": 3550,
      "Ġdevote": 3551,
      "Ġinvisible": 3552,
      "Ġrestrained": 3553,
      "Ġconnected": 3554,
      "Ġpurusha": 3555,
      "Ġhunger": 3556,
      "here": 3557,
      "pri": 3558,
      "Ġ9": 3559,
      "Ġweep": 3560,
      "Ġmanifest": 3561,
      "Ġjour": 3562,
      "Ġjack": 3563,
      "Ġleaves": 3564,
      "Ġdirected": 3565,
      "Ġfragr": 3566,
      "Ġvrishnis": 3567,
      "Ġrising": 3568,
      "Ġcircumstances": 3569,
      "Ġembodied": 3570,
      "Ġdeceit": 3571,
      "Ġgautama": 3572,
      "ian": 3573,
      "oon": 3574,
      "Ġfre": 3575,
      "Ġta": 3576,
      "Ġkilled": 3577,
      "Ġdissol": 3578,
      "rita": 3579,
      "aught": 3580,
      "Ġsubd": 3581,
      "Ġpractised": 3582,
      "Ġassuming": 3583,
      "Ġrecollect": 3584,
      "Ġpiece": 3585,
      "Ġliterally": 3586,
      "Ġjewels": 3587,
      "Ġtopic": 3588,
      "ayanti": 3589,
      "Ġupro": 3590,
      "oney": 3591,
      "arer": 3592,
      "range": 3593,
      "Ġsmiling": 3594,
      "Ġpreceptors": 3595,
      "Ġhonours": 3596,
      "Ġdiad": 3597,
      "Ġascended": 3598,
      "wata": 3599,
      "Ġcours": 3600,
      "ravas": 3601,
      "itya": 3602,
      "ements": 3603,
      "ciated": 3604,
      "Ġgrind": 3605,
      "Ġcausing": 3606,
      "Ġrout": 3607,
      "Ġconsider": 3608,
      "Ġnagas": 3609,
      "Ġjourne": 3610,
      "Ġstone": 3611,
      "Ġexam": 3612,
      "Ġoffering": 3613,
      "Ġvision": 3614,
      "Ġastral": 3615,
      "Ġpouring": 3616,
      "gra": 3617,
      "Ġwhetted": 3618,
      "Ġroom": 3619,
      "Ġinfer": 3620,
      "Ġbenefit": 3621,
      "Ġpurposes": 3622,
      "Ġdussasana": 3623,
      "Ġstationed": 3624,
      "iet": 3625,
      "Ġbatt": 3626,
      "Ġbab": 3627,
      "Ġreb": 3628,
      "verse": 3629,
      "Ġexpect": 3630,
      "Ġcourage": 3631,
      "Ġopinion": 3632,
      "gri": 3633,
      "rating": 3634,
      "Ġtong": 3635,
      "Ġdistance": 3636,
      "Ġtext": 3637,
      "Ġlightning": 3638,
      "Ġservice": 3639,
      "Ġabstention": 3640,
      "Ġsanct": 3641,
      "Ġpenetrated": 3642,
      "Ġnecessary": 3643,
      "Ġspecies": 3644,
      "jo": 3645,
      "lo": 3646,
      "Ġcere": 3647,
      "apati": 3648,
      "Ġindivid": 3649,
      "Ġguest": 3650,
      "Ġkept": 3651,
      "Ġordinance": 3652,
      "Ġordinary": 3653,
      "Ġperfectly": 3654,
      "Ġsecret": 3655,
      "ming": 3656,
      "Ġoften": 3657,
      "Ġves": 3658,
      "ishing": 3659,
      "Ġdeser": 3660,
      "Ġslight": 3661,
      "pless": 3662,
      "Ġtransgress": 3663,
      "Ġpassing": 3664,
      "sk": 3665,
      "Ġcostly": 3666,
      "Ġpious": 3667,
      "avya": 3668,
      "Ġide": 3669,
      "icle": 3670,
      "Ġalmost": 3671,
      "Ġappl": 3672,
      "Ġgovinda": 3673,
      "Ġprinci": 3674,
      "Ġways": 3675,
      "Ġministers": 3676,
      "Ġrise": 3677,
      "Ġmental": 3678,
      "jayas": 3679,
      "those": 3680,
      "Ġsidd": 3681,
      "Ġhari": 3682,
      "peci": 3683,
      "Ġacting": 3684,
      "Ġworshipping": 3685,
      "Ġgeneral": 3686,
      "Ġcolour": 3687,
      "Ġimmediately": 3688,
      "Ġconceal": 3689,
      "vati": 3690,
      "ye": 3691,
      "Ġha": 3692,
      "Ġfun": 3693,
      "Ġfulf": 3694,
      "Ġpr": 3695,
      "Ġbeasts": 3696,
      "Ġlik": 3697,
      "Ġresisted": 3698,
      "Ġskill": 3699,
      "Ġclear": 3700,
      "Ġattachment": 3701,
      "Ġconquer": 3702,
      "Ġfrightful": 3703,
      "Ġserp": 3704,
      "Ġmaterial": 3705,
      "Ġsource": 3706,
      "Ġknew": 3707,
      "Ġdasar": 3708,
      "Ġceremon": 3709,
      "Ġauth": 3710,
      "Ġkus": 3711,
      "Ġsuyodhana": 3712,
      "Ġyoked": 3713,
      "pelled": 3714,
      "Ġprepared": 3715,
      "Ġinfuri": 3716,
      "Ġespeci": 3717,
      "Ġcitizens": 3718,
      "ructible": 3719,
      "Ġflames": 3720,
      "Ġfly": 3721,
      "Ġmand": 3722,
      "osing": 3723,
      "Ġfourth": 3724,
      "Ġseeking": 3725,
      "Ġmarriage": 3726,
      "athers": 3727,
      "Ġsrinjayas": 3728,
      "Ġbrahmacharya": 3729,
      "Ġwalk": 3730,
      "orts": 3731,
      "ories": 3732,
      "utions": 3733,
      "Ġspouse": 3734,
      "Ġvasus": 3735,
      "Ġbelie": 3736,
      "Ġrepaired": 3737,
      "Ġdisappeared": 3738,
      "Ġabsence": 3739,
      "Ġmult": 3740,
      "thern": 3741,
      "Ġextra": 3742,
      "Ġlocks": 3743,
      ",--\"": 3744,
      "Ġblind": 3745,
      "Ġimpro": 3746,
      "Ġproduce": 3747,
      "Ġdefeated": 3748,
      "Ġkritavarman": 3749,
      "Ġsraddha": 3750,
      "Ġestablished": 3751,
      "Ġfearlessly": 3752,
      "Ġsattwa": 3753,
      "even": 3754,
      "Ġtill": 3755,
      "Ġumb": 3756,
      "Ġactions": 3757,
      "Ġreside": 3758,
      "Ġresiding": 3759,
      "Ġtwang": 3760,
      "Ġmonke": 3761,
      "Ġplacing": 3762,
      "Ġfriendship": 3763,
      "Ġtirthas": 3764,
      "Ġversed": 3765,
      "Ġcrushed": 3766,
      "Ġlions": 3767,
      "Ġvill": 3768,
      "ump": 3769,
      "Ġpossessions": 3770,
      "Ġcommenced": 3771,
      "Ġtremble": 3772,
      "atsu": 3773,
      "Ġoccup": 3774,
      "Ġcalc": 3775,
      "Ġleader": 3776,
      "Ġtouched": 3777,
      "Ġassumed": 3778,
      "Ġriding": 3779,
      "Ġmentioned": 3780,
      "vements": 3781,
      "atra": 3782,
      "ounds": 3783,
      "orous": 3784,
      "used": 3785,
      "Ġpraj": 3786,
      "Ġobserve": 3787,
      "Ġwaiting": 3788,
      "Ġoblig": 3789,
      "Ġrepresented": 3790,
      "Ġfurther": 3791,
      "Ġsiddhas": 3792,
      "iors": 3793,
      "rell": 3794,
      "Ġbare": 3795,
      "Ġima": 3796,
      "iment": 3797,
      "ived": 3798,
      "Ġgoodness": 3799,
      "Ġdisco": 3800,
      "Ġconstell": 3801,
      "Ġadvance": 3802,
      "Ġproduced": 3803,
      "Ġumbrell": 3804,
      "minded": 3805,
      "pro": 3806,
      "Ġinex": 3807,
      "Ġkill": 3808,
      "Ġspread": 3809,
      "Ġfollows": 3810,
      "Ġequally": 3811,
      "Ġpenance": 3812,
      "Ġvah": 3813,
      "Ġwomb": 3814,
      "Ġimpart": 3815,
      "Ġencountered": 3816,
      "Ġaccepted": 3817,
      "Ġdamayanti": 3818,
      "Ġdiadem": 3819,
      "gas": 3820,
      "Ġcros": 3821,
      "Ġmill": 3822,
      "Ġnon": 3823,
      "Ġranks": 3824,
      "oped": 3825,
      "Ġashv": 3826,
      "Ġtemp": 3827,
      "iable": 3828,
      "Ġcontain": 3829,
      "Ġcomfor": 3830,
      "Ġadore": 3831,
      "Ġcanst": 3832,
      "Ġdecrep": 3833,
      "Ġpresented": 3834,
      "Ġfeatures": 3835,
      "Ġavoid": 3836,
      "Ġsuvala": 3837,
      "Ġcounsellors": 3838,
      "Ġbus": 3839,
      "Ġexal": 3840,
      "rows": 3841,
      "Ġabounding": 3842,
      "Ġknowest": 3843,
      "Ġpassions": 3844,
      "Ġwaited": 3845,
      "Ġdaily": 3846,
      "Ġindicated": 3847,
      "Ġmeeting": 3848,
      "Ġclasses": 3849,
      "Ġdisease": 3850,
      "use": 3851,
      "Ġspake": 3852,
      "fulness": 3853,
      "Ġknows": 3854,
      "lessness": 3855,
      "iratha": 3856,
      "Ġbecometh": 3857,
      "Ġrefer": 3858,
      "Ġteeth": 3859,
      "Ġentirely": 3860,
      "Ġimpetuous": 3861,
      "Ġmalice": 3862,
      "Ġtask": 3863,
      "kas": 3864,
      "night": 3865,
      "Ġbent": 3866,
      "Ġreceive": 3867,
      "string": 3868,
      "adha": 3869,
      "Ġdeserving": 3870,
      "Ġprey": 3871,
      "atthama": 3872,
      "xes": 3873,
      "Ġcat": 3874,
      "vera": 3875,
      "Ġshout": 3876,
      "Ġexhaust": 3877,
      "Ġ10": 3878,
      "Ġconsists": 3879,
      "decked": 3880,
      "Ġspeeches": 3881,
      "Ġwander": 3882,
      "Ġkeeping": 3883,
      "Ġmansion": 3884,
      "Ġmunis": 3885,
      "Ġfrequ": 3886,
      "Ġflying": 3887,
      "Ġmild": 3888,
      "Ġpush": 3889,
      "Ġ11": 3890,
      "Ġsupported": 3891,
      "rist": 3892,
      "inal": 3893,
      "ulent": 3894,
      "Ġpossessing": 3895,
      "Ġmove": 3896,
      "Ġearn": 3897,
      "Ġdirection": 3898,
      "Ġdisregarding": 3899,
      "Ġscorcher": 3900,
      "Ġfemale": 3901,
      "Ġreduced": 3902,
      "Ġisland": 3903,
      "Ġvibhatsu": 3904,
      "Ġshrouded": 3905,
      "Ġwinged": 3906,
      "Ġhab": 3907,
      "udhana": 3908,
      "Ġabund": 3909,
      "Ġflight": 3910,
      "ceiving": 3911,
      "Ġcountless": 3912,
      "Ġhusbands": 3913,
      "Ġincluding": 3914,
      "Ġconchs": 3915,
      "Ġcommitted": 3916,
      "rone": 3917,
      "Ġble": 3918,
      "Ġkap": 3919,
      "Ġspeaking": 3920,
      "Ġdiscus": 3921,
      "Ġvaisya": 3922,
      "Ġcapital": 3923,
      "Ġpolicy": 3924,
      "Ġyuyudhana": 3925,
      "brahm": 3926,
      "Ġsubtile": 3927,
      "Ġwert": 3928,
      "Ġease": 3929,
      "Ġends": 3930,
      "Ġcontem": 3931,
      "Ġhumility": 3932,
      "airs": 3933,
      "Ġdecrepitude": 3934,
      "Ġina": 3935,
      "Ġears": 3936,
      "Ġless": 3937,
      "Ġmale": 3938,
      "Ġ12": 3939,
      "Ġbestowed": 3940,
      "Ġfrag": 3941,
      "Ġfaultless": 3942,
      "Ġcompletely": 3943,
      "Ġauthor": 3944,
      "Ġcities": 3945,
      "Ġviv": 3946,
      "ulated": 3947,
      "which": 3948,
      "Ġnorth": 3949,
      "Ġdrawing": 3950,
      "Ġforests": 3951,
      "Ġsomadatta": 3952,
      "Ġsixty": 3953,
      "Ġrepairing": 3954,
      "Ġindications": 3955,
      "Ġadopted": 3956,
      "Ġindulge": 3957,
      "Ġeasily": 3958,
      "Ġinferior": 3959,
      "Ġexalted": 3960,
      "Ġchallen": 3961,
      "antic": 3962,
      "Ġcontent": 3963,
      "Ġquality": 3964,
      "Ġbowed": 3965,
      "Ġvirulent": 3966,
      "Ġsomething": 3967,
      "Ġconsequences": 3968,
      "Ġhappily": 3969,
      "Ġwrathful": 3970,
      "Ġlotuses": 3971,
      "Ġroaring": 3972,
      "Ġmonths": 3973,
      "Ġtribes": 3974,
      "Ġgratify": 3975,
      "Ġmatsyas": 3976,
      "Ġbegotten": 3977,
      "Ġashvatthama": 3978,
      "ib": 3979,
      "Ġbound": 3980,
      "anya": 3981,
      "Ġlen": 3982,
      "Ġmem": 3983,
      "Ġuntru": 3984,
      "Ġfailed": 3985,
      "Ġdhart": 3986,
      "Ġneck": 3987,
      "ikas": 3988,
      "Ġsatis": 3989,
      "Ġguil": 3990,
      "Ġremn": 3991,
      "agni": 3992,
      "Ġcondition": 3993,
      "Ġverses": 3994,
      "Ġhelpless": 3995,
      "Ġbhagadatta": 3996,
      "Ġobedient": 3997,
      "Ġfron": 3998,
      "Ġmr": 3999,
      "Ġposition": 4000,
      "Ġvult": 4001,
      "oms": 4002,
      "Ġdeed": 4003,
      "Ġyayati": 4004,
      "Ġquiet": 4005,
      "Ġlightness": 4006,
      "icient": 4007,
      "Ġdescribed": 4008,
      "Ġremembering": 4009,
      "Ġimplies": 4010,
      "you": 4011,
      "Ġaksh": 4012,
      "Ġinner": 4013,
      "Ġeast": 4014,
      "cha": 4015,
      "elf": 4016,
      "istic": 4017,
      "Ġboy": 4018,
      "Ġvisit": 4019,
      "Ġthoughts": 4020,
      "Ġshowed": 4021,
      "aji": 4022,
      "Ġappearance": 4023,
      "Ġconstituted": 4024,
      "Ġfortune": 4025,
      "Ġwedded": 4026,
      "lif": 4027,
      "Ġoh": 4028,
      "inity": 4029,
      "Ġbit": 4030,
      "aped": 4031,
      "Ġthereof": 4032,
      "upid": 4033,
      "without": 4034,
      "Ġextre": 4035,
      "Ġbringing": 4036,
      "Ġplunged": 4037,
      "Ġfleet": 4038,
      "di": 4039,
      "gon": 4040,
      "Ġ.": 4041,
      "ints": 4042,
      "Ġaspect": 4043,
      "osm": 4044,
      "Ġappreh": 4045,
      "flict": 4046,
      "Ġaided": 4047,
      "Ġconsumed": 4048,
      "Ġassailed": 4049,
      "Ġconcentrated": 4050,
      "nas": 4051,
      "vata": 4052,
      "Ġtamas": 4053,
      "itri": 4054,
      "ructive": 4055,
      "Ġanta": 4056,
      "Ġraised": 4057,
      "Ġdistinguished": 4058,
      "Ġamid": 4059,
      "Ġsole": 4060,
      "Ġswami": 4061,
      "Ġsaluted": 4062,
      "Ġfirmly": 4063,
      "Ġminds": 4064,
      "Ġoblations": 4065,
      "Ġfragments": 4066,
      "uosity": 4067,
      "wati": 4068,
      "Ġdef": 4069,
      "iving": 4070,
      "pected": 4071,
      "seless": 4072,
      "igned": 4073,
      "Ġsoft": 4074,
      "isten": 4075,
      "Ġpossession": 4076,
      "Ġovercome": 4077,
      "Ġusual": 4078,
      "Ġflower": 4079,
      "Ġutanka": 4080,
      "Ġsetting": 4081,
      "Ġoneself": 4082,
      "Ġdescendant": 4083,
      "Ġhindu": 4084,
      "Ġfront": 4085,
      "hara": 4086,
      "anim": 4087,
      "Ġrender": 4088,
      "Ġrejo": 4089,
      "Ġfors": 4090,
      "Ġlips": 4091,
      "Ġgreatest": 4092,
      "Ġcho": 4093,
      "Ġ\"'": 4094,
      "oka": 4095,
      "Ġresidence": 4096,
      "Ġcollect": 4097,
      "Ġblue": 4098,
      "Ġprincip": 4099,
      "Ġcheck": 4100,
      "Ġdistrib": 4101,
      "Ġstrive": 4102,
      "Ġdrums": 4103,
      "Ġcarefully": 4104,
      "Ġpunish": 4105,
      "Ġpatience": 4106,
      "Ġantagon": 4107,
      "Ġdim": 4108,
      "Ġmeant": 4109,
      "Ġmounted": 4110,
      "Ġdifference": 4111,
      "Ġsamv": 4112,
      "Ġimpetuosity": 4113,
      "Ġpieces": 4114,
      "Ġpaid": 4115,
      "reaths": 4116,
      "Ġancestors": 4117,
      "Ġblew": 4118,
      "'.": 4119,
      "gen": 4120,
      "Ġfate": 4121,
      "omp": 4122,
      "Ġforb": 4123,
      "Ġbhur": 4124,
      "rown": 4125,
      "Ġclu": 4126,
      "Ġfears": 4127,
      "Ġsurp": 4128,
      "Ġvaish": 4129,
      "Ġengage": 4130,
      "Ġnatural": 4131,
      "Ġleads": 4132,
      "Ġdamsel": 4133,
      "Ġvanquishing": 4134,
      "Ġlength": 4135,
      "god": 4136,
      "Ġthigh": 4137,
      "Ġcosm": 4138,
      "Ġbears": 4139,
      "Ġlaksh": 4140,
      "Ġprogress": 4141,
      "Ġknoweth": 4142,
      "cibly": 4143,
      "Ġmag": 4144,
      "ensive": 4145,
      "mend": 4146,
      "Ġremains": 4147,
      "Ġchecked": 4148,
      "eshava": 4149,
      "Ġharsh": 4150,
      "Ġdispelled": 4151,
      "Ġdeclare": 4152,
      "Ġmaintain": 4153,
      "Ġessence": 4154,
      "cent": 4155,
      "gar": 4156,
      "inary": 4157,
      "atic": 4158,
      "Ġtor": 4159,
      "Ġlap": 4160,
      "Ġlun": 4161,
      "Ġforcibly": 4162,
      "akuni": 4163,
      "Ġstring": 4164,
      "Ġdism": 4165,
      "Ġfolly": 4166,
      "Ġskies": 4167,
      "Ġchitrasena": 4168,
      "Ġviswamitra": 4169,
      "Ġperpetu": 4170,
      "Ġparent": 4171,
      "Ġkeshava": 4172,
      "ching": 4173,
      "uta": 4174,
      "Ġmel": 4175,
      "apt": 4176,
      "Ġ13": 4177,
      "Ġinstead": 4178,
      "Ġvisible": 4179,
      "Ġvrih": 4180,
      "Ġsyst": 4181,
      "Ġvehicles": 4182,
      "Ġsad": 4183,
      "Ġprat": 4184,
      "Ġreasons": 4185,
      "erer": 4186,
      "Ġkuvera": 4187,
      "arasandha": 4188,
      "Ġgoes": 4189,
      "Ġpoor": 4190,
      "Ġsilence": 4191,
      "Ġrestraining": 4192,
      "Ġdependent": 4193,
      "ÂĢÂĺ": 4194,
      "gration": 4195,
      "Ġmasses": 4196,
      "Ġdisplaying": 4197,
      "Ġuproar": 4198,
      "fum": 4199,
      "Ġfilling": 4200,
      "arsh": 4201,
      "Ġlater": 4202,
      "omach": 4203,
      "Ġaside": 4204,
      "iced": 4205,
      "Ġstomach": 4206,
      "Ġseats": 4207,
      "achas": 4208,
      "Ġagastya": 4209,
      "Ġinterest": 4210,
      "Ġundergo": 4211,
      "Ġattainment": 4212,
      "Ġparthas": 4213,
      "Ġdirect": 4214,
      "Ġputting": 4215,
      "Ġignorant": 4216,
      "000": 4217,
      "inions": 4218,
      "Ġserve": 4219,
      "Ġkum": 4220,
      "Ġreward": 4221,
      "alking": 4222,
      "Ġshone": 4223,
      "soph": 4224,
      "ilo": 4225,
      "Ġabl": 4226,
      "Ġintent": 4227,
      "Ġintended": 4228,
      "Ġleast": 4229,
      "Ġfelled": 4230,
      "Ġcursed": 4231,
      "Ġconsuming": 4232,
      "Ġsavitri": 4233,
      "Ġlamentations": 4234,
      "Ġguilty": 4235,
      "mana": 4236,
      "Ġmarch": 4237,
      "cends": 4238,
      "Ġud": 4239,
      "nage": 4240,
      "Ġenv": 4241,
      "Ġimpelled": 4242,
      "Ġdestructive": 4243,
      "Ġdry": 4244,
      "ize": 4245,
      "ized": 4246,
      "haustible": 4247,
      "rel": 4248,
      "Ġhom": 4249,
      "Ġtort": 4250,
      "Ġdwar": 4251,
      "Ġbeat": 4252,
      "Ġgross": 4253,
      "estructible": 4254,
      "Ġjarasandha": 4255,
      "ension": 4256,
      "Ġincom": 4257,
      "Ġfruition": 4258,
      "Ġintellect": 4259,
      "Ġplease": 4260,
      "Ġhonest": 4261,
      "Ġtranslator": 4262,
      "ilosoph": 4263,
      "ojas": 4264,
      "sue": 4265,
      "wat": 4266,
      "atory": 4267,
      "Ġcold": 4268,
      "Ġlakes": 4269,
      "Ġkir": 4270,
      "Ġnara": 4271,
      "Ġarise": 4272,
      "ival": 4273,
      "Ġdisag": 4274,
      "Ġunriv": 4275,
      "Ġincess": 4276,
      "ager": 4277,
      "Ġdoubts": 4278,
      "Ġdecl": 4279,
      "Ġdrinking": 4280,
      "Ġsankhya": 4281,
      "Ġoriginal": 4282,
      "Ġdenizens": 4283,
      "Ġprincipal": 4284,
      "Ġunrivalled": 4285,
      ").'": 4286,
      "nar": 4287,
      "Ġfow": 4288,
      "Ġcorn": 4289,
      "raged": 4290,
      "Ġdog": 4291,
      "Ġcarnage": 4292,
      "oking": 4293,
      "Ġfeathers": 4294,
      "Ġphilosoph": 4295,
      "Ġachievements": 4296,
      "Ġoccasions": 4297,
      "Ġyogins": 4298,
      "eswara": 4299,
      "teenth": 4300,
      "Ġadorable": 4301,
      "Ġinexhaustible": 4302,
      "Ġbusiness": 4303,
      "ham": 4304,
      "Ġhouses": 4305,
      "Ġtus": 4306,
      "Ġming": 4307,
      "anam": 4308,
      "ancy": 4309,
      "chana": 4310,
      "irth": 4311,
      "utable": 4312,
      "Ġlie": 4313,
      "Ġcometh": 4314,
      "Ġeng": 4315,
      "Ġenhan": 4316,
      "lagration": 4317,
      "Ġslow": 4318,
      "Ġsubtle": 4319,
      "Ġflo": 4320,
      "Ġenjoying": 4321,
      "Ġdissolution": 4322,
      "listen": 4323,
      "sl": 4324,
      "ze": 4325,
      "ening": 4326,
      "Ġinformed": 4327,
      "Ġkali": 4328,
      "Ġkich": 4329,
      "Ġrelying": 4330,
      "Ġweight": 4331,
      "Ġfail": 4332,
      "Ġspect": 4333,
      "Ġgrasp": 4334,
      "ikes": 4335,
      "Ġplants": 4336,
      "Ġapart": 4337,
      "Ġexpress": 4338,
      "Ġhorsemen": 4339,
      "veloped": 4340,
      "Ġpalms": 4341,
      "Ġsubdued": 4342,
      ");": 4343,
      "Ġses": 4344,
      "Ġmixed": 4345,
      "Ġdaksha": 4346,
      "Ġrese": 4347,
      "adhi": 4348,
      "Ġcarried": 4349,
      "Ġmagn": 4350,
      "Ġbroke": 4351,
      "Ġkarma": 4352,
      "Ġencomp": 4353,
      "Ġlistened": 4354,
      "Ġnights": 4355,
      "akshina": 4356,
      "Ġwheels": 4357,
      "Ġthirty": 4358,
      "Ġsolicited": 4359,
      "Ġsummoned": 4360,
      "Ġjourney": 4361,
      "Ġindividual": 4362,
      "Ġespecially": 4363,
      "upidity": 4364,
      "gated": 4365,
      "thod": 4366,
      "Ġbal": 4367,
      "Ġhot": 4368,
      "Ġhoney": 4369,
      "Ġandh": 4370,
      "aries": 4371,
      "very": 4372,
      "Ġaloud": 4373,
      "keth": 4374,
      "Ġwhither": 4375,
      "Ġjamad": 4376,
      "Ġperfum": 4377,
      "Ġanybody": 4378,
      "Ġappointed": 4379,
      "Ġdwelt": 4380,
      "Ġdelighted": 4381,
      "Ġachieving": 4382,
      "Ġwinds": 4383,
      "Ġdisappear": 4384,
      "Ġcovering": 4385,
      "Ġtall": 4386,
      "Ġpot": 4387,
      "omasa": 4388,
      "Ġshape": 4389,
      "ift": 4390,
      "Ġunw": 4391,
      "Ġincor": 4392,
      "why": 4393,
      "Ġsatwata": 4394,
      "Ġterror": 4395,
      "Ġnarrat": 4396,
      "Ġsett": 4397,
      "Ġtranscends": 4398,
      "Ġvalour": 4399,
      "Ġcease": 4400,
      "Ġdisplayed": 4401,
      "Ġcovetousness": 4402,
      "Ġtongue": 4403,
      "Ġprana": 4404,
      "Ġdisagree": 4405,
      "Ġsigh": 4406,
      "Ġfla": 4407,
      "Ġtrig": 4408,
      "Ġcamp": 4409,
      "Ġdish": 4410,
      "Ġstones": 4411,
      "Ġseeds": 4412,
      "Ġarmies": 4413,
      "Ġmeru": 4414,
      "Ġsudras": 4415,
      "Ġcharity": 4416,
      "Ġoppos": 4417,
      "Ġreflected": 4418,
      "Ġyogi": 4419,
      "Ġmessen": 4420,
      "cl": 4421,
      "ka": 4422,
      "aling": 4423,
      "Ġindestructible": 4424,
      "Ġskanda": 4425,
      "Ġmeritorious": 4426,
      "Ġdistressed": 4427,
      "Ġmothers": 4428,
      "Ġgandharva": 4429,
      "Ġattachments": 4430,
      "Ġeaten": 4431,
      "Ġresolution": 4432,
      "Ġrecogn": 4433,
      "Ġanxious": 4434,
      "Ġconclusion": 4435,
      "Ġvehicle": 4436,
      "Ġdomestic": 4437,
      "Ġantagonist": 4438,
      "Ġsires": 4439,
      "Ġgre": 4440,
      "iry": 4441,
      "Ġsams": 4442,
      "Ġprost": 4443,
      "Ġraz": 4444,
      "Ġunb": 4445,
      "Ġunknown": 4446,
      "Ġsprang": 4447,
      "Ġhunt": 4448,
      "Ġguard": 4449,
      "Ġprofess": 4450,
      "Ġabstain": 4451,
      "Ġconsume": 4452,
      "Ġmodest": 4453,
      "Ġenquired": 4454,
      "Ġunfading": 4455,
      "Ġvikarna": 4456,
      "Ġtrigart": 4457,
      "acked": 4458,
      "oja": 4459,
      "atis": 4460,
      "ananda": 4461,
      "Ġeager": 4462,
      "Ġgamb": 4463,
      "ify": 4464,
      "Ġperse": 4465,
      "Ġgrave": 4466,
      "Ġcompreh": 4467,
      "Ġreference": 4468,
      "Ġsmoke": 4469,
      "Ġscar": 4470,
      "Ġsingha": 4471,
      "Ġashes": 4472,
      "Ġtriple": 4473,
      "ounced": 4474,
      "Ġablutions": 4475,
      "Ġdisagreeable": 4476,
      "Ġsiva": 4477,
      "atma": 4478,
      "edis": 4479,
      "Ġcased": 4480,
      "Ġcupidity": 4481,
      "utta": 4482,
      "Ġmend": 4483,
      "etu": 4484,
      "Ġperv": 4485,
      "Ġcop": 4486,
      "Ġsink": 4487,
      "Ġgradu": 4488,
      "Ġ21": 4489,
      "Ġmoving": 4490,
      "Ġbreak": 4491,
      "Ġmidd": 4492,
      "Ġaustere": 4493,
      "Ġaswins": 4494,
      "Ġgranted": 4495,
      "Ġstrewn": 4496,
      "Ġcherished": 4497,
      "Ġduhsasana": 4498,
      "saut": 4499,
      "Ġwrit": 4500,
      "Ġmast": 4501,
      "Ġgrou": 4502,
      "Ġnect": 4503,
      "Ġvain": 4504,
      "adhas": 4505,
      "ghters": 4506,
      "Ġsto": 4507,
      "Ġstretch": 4508,
      "Ġuplif": 4509,
      "Ġcool": 4510,
      "irable": 4511,
      "Ġafterwards": 4512,
      "Ġswall": 4513,
      "Ġswift": 4514,
      "Ġplant": 4515,
      "Ġreply": 4516,
      "Ġmatch": 4517,
      "Ġfamous": 4518,
      "Ġstead": 4519,
      "Ġelder": 4520,
      "Ġextreme": 4521,
      "sauti": 4522,
      "Ġnectar": 4523,
      "sam": 4524,
      "isravas": 4525,
      "enance": 4526,
      "Ġsaints": 4527,
      "Ġyell": 4528,
      "Ġobe": 4529,
      "Ġaged": 4530,
      "pper": 4531,
      "unity": 4532,
      "Ġincon": 4533,
      "Ġencountering": 4534,
      "Ġbelongs": 4535,
      "Ġinstructions": 4536,
      "Ġdeparted": 4537,
      "Ġexerc": 4538,
      "tell": 4539,
      "uing": 4540,
      "Ġpura": 4541,
      "Ġinfl": 4542,
      "Ġshield": 4543,
      "Ġsele": 4544,
      "Ġseasons": 4545,
      "attered": 4546,
      "ively": 4547,
      "Ġjump": 4548,
      "Ġbehave": 4549,
      "Ġrice": 4550,
      "Ġ15": 4551,
      "Ġdesirest": 4552,
      "Ġpriests": 4553,
      "Ġhosts": 4554,
      "Ġloudly": 4555,
      "Ġcleans": 4556,
      "Ġpointed": 4557,
      "Ġnumbering": 4558,
      "Ġspirits": 4559,
      "mitted": 4560,
      "Ġkriya": 4561,
      "Ġsubjugated": 4562,
      "Ġdischar": 4563,
      "Ġresemble": 4564,
      "Ġmendic": 4565,
      "bles": 4566,
      "mal": 4567,
      "Ġtrou": 4568,
      "Ġcross": 4569,
      "Ġrod": 4570,
      "Ġ17": 4571,
      "Ġswelling": 4572,
      "Ġdaughters": 4573,
      "Ġrepro": 4574,
      "Ġconflagration": 4575,
      "Ġserving": 4576,
      "Ġopport": 4577,
      "Ġrobbers": 4578,
      "Ġascending": 4579,
      "Ġoccurs": 4580,
      "Ġpromise": 4581,
      "Ġtrunk": 4582,
      "Ġprajapati": 4583,
      "ih": 4584,
      "pit": 4585,
      "vation": 4586,
      "ency": 4587,
      "Ġasso": 4588,
      "ulation": 4589,
      "arters": 4590,
      "Ġresist": 4591,
      "Ġearthly": 4592,
      "Ġyoj": 4593,
      "Ġblare": 4594,
      "Ġscent": 4595,
      "Ġangiras": 4596,
      "Ġornament": 4597,
      "Ġgaze": 4598,
      "Ġbabaji": 4599,
      "Ġremnant": 4600,
      "Ġkichaka": 4601,
      "?\"": 4602,
      "Ġfie": 4603,
      "Ġpale": 4604,
      "Ġinse": 4605,
      "Ġgig": 4606,
      "ructed": 4607,
      "Ġdeb": 4608,
      "Ġchange": 4609,
      "Ġadvers": 4610,
      "Ġrecitation": 4611,
      "ukha": 4612,
      "Ġsankara": 4613,
      "Ġfinal": 4614,
      "beholding": 4615,
      "Ġjamadagni": 4616,
      "equ": 4617,
      "mark": 4618,
      "yavana": 4619,
      "Ġthrone": 4620,
      "Ġcited": 4621,
      "Ġmak": 4622,
      "oks": 4623,
      "Ġpraises": 4624,
      "Ġswet": 4625,
      "Ġbeloved": 4626,
      "Ġdelighter": 4627,
      "Ġsitu": 4628,
      "Ġquestions": 4629,
      "Ġtouching": 4630,
      "Ġfortnight": 4631,
      "Ġfrightened": 4632,
      "Ġquestioned": 4633,
      "Ġsrutis": 4634,
      "Ġembraced": 4635,
      "faction": 4636,
      "Ġimproper": 4637,
      "Ġcalcutta": 4638,
      "uru": 4639,
      "Ġfro": 4640,
      "Ġwhir": 4641,
      "Ġreceiving": 4642,
      "Ġshakuni": 4643,
      "Ġallies": 4644,
      "Ġsev": 4645,
      "Ġalt": 4646,
      "que": 4647,
      "Ġamrita": 4648,
      "Ġnoble": 4649,
      "arest": 4650,
      "Ġafflict": 4651,
      "Ġdesiring": 4652,
      "Ġenjoys": 4653,
      "Ġyogin": 4654,
      "Ġinstruments": 4655,
      "Ġwielders": 4656,
      "Ġoccurred": 4657,
      "Ġgratifying": 4658,
      "Ġsarasvati": 4659,
      "Ġhymns": 4660,
      "Ġfurious": 4661,
      "Ġjuice": 4662,
      "Ġmillions": 4663,
      "Ġnarrative": 4664,
      "haps": 4665,
      "Ġhos": 4666,
      "Ġmere": 4667,
      "Ġlumin": 4668,
      "see": 4669,
      "Ġuma": 4670,
      "Ġmethod": 4671,
      "Ġprogen": 4672,
      "Ġravana": 4673,
      "Ġamiable": 4674,
      "Ġja": 4675,
      "onscious": 4676,
      "ordinary": 4677,
      "Ġ20": 4678,
      "Ġveda": 4679,
      "Ġwishest": 4680,
      "Ġproperty": 4681,
      "Ġabandoned": 4682,
      "Ġvaisyas": 4683,
      "Ġsrinjaya": 4684,
      "Ġidentical": 4685,
      "Ġrunning": 4686,
      "Ġgigantic": 4687,
      "her": 4688,
      "ips": 4689,
      "Ġowing": 4690,
      "Ġvent": 4691,
      "ayani": 4692,
      "ades": 4693,
      "Ġradi": 4694,
      "Ġuphold": 4695,
      "Ġdisgu": 4696,
      "Ġcoats": 4697,
      "Ġ18": 4698,
      "Ġgraced": 4699,
      "Ġlooks": 4700,
      "Ġsmit": 4701,
      "Ġceased": 4702,
      "Ġcountries": 4703,
      "Ġwandering": 4704,
      "Ġbanners": 4705,
      "Ġincrease": 4706,
      "Ġinhabited": 4707,
      "Ġvessel": 4708,
      "narada": 4709,
      "hini": 4710,
      "liness": 4711,
      "eric": 4712,
      "Ġfeed": 4713,
      "Ġkart": 4714,
      "Ġshore": 4715,
      "aketu": 4716,
      "Ġsection": 4717,
      "ilities": 4718,
      "Ġaffluence": 4719,
      "Ġsprings": 4720,
      "ritti": 4721,
      "Ġroad": 4722,
      "Ġgover": 4723,
      "Ġassist": 4724,
      "Ġaccomplishing": 4725,
      "acy": 4726,
      "Ġkaling": 4727,
      "Ġmaternal": 4728,
      "Ġkritavarma": 4729,
      "Ġuntruth": 4730,
      "tas": 4731,
      "Ġbidd": 4732,
      "Ġhours": 4733,
      "Ġfasts": 4734,
      "Ġcust": 4735,
      "arn": 4736,
      "Ġbeget": 4737,
      "ayu": 4738,
      "avan": 4739,
      "imit": 4740,
      "Ġshame": 4741,
      "Ġstart": 4742,
      "Ġconflict": 4743,
      "ulted": 4744,
      "ifying": 4745,
      "cribed": 4746,
      "Ġtwice": 4747,
      "Ġpraised": 4748,
      "Ġrecit": 4749,
      "Ġenjoyed": 4750,
      "Ġreturning": 4751,
      "Ġimmutable": 4752,
      "Ġsolar": 4753,
      "restrained": 4754,
      "Ġholding": 4755,
      "Ġdragged": 4756,
      "Ġconstellation": 4757,
      "aum": 4758,
      "dhas": 4759,
      "pra": 4760,
      "Ġaut": 4761,
      "Ġhir": 4762,
      "Ġcard": 4763,
      "Ġmaya": 4764,
      "Ġpost": 4765,
      "Ġvy": 4766,
      "Ġdeter": 4767,
      "Ġyud": 4768,
      "Ġstake": 4769,
      "Ġenraged": 4770,
      "Ġherbs": 4771,
      "Ġquarters": 4772,
      "Ġattired": 4773,
      "Ġsubst": 4774,
      "Ġappertain": 4775,
      "Ġaffliction": 4776,
      "Ġskin": 4777,
      "Ġinstalled": 4778,
      "angu": 4779,
      "Ġsaraswati": 4780,
      "Ġhidim": 4781,
      "Ġweeping": 4782,
      "Ġimpetuously": 4783,
      "rise": 4784,
      "Ġfed": 4785,
      "Ġgain": 4786,
      "Ġrear": 4787,
      "Ġrenow": 4788,
      "Ġhealth": 4789,
      "aded": 4790,
      "versed": 4791,
      "indra": 4792,
      "iksh": 4793,
      "Ġplight": 4794,
      "Ġnumbers": 4795,
      "Ġvictorious": 4796,
      "Ġdepending": 4797,
      "Ġkrita": 4798,
      "Ġfinding": 4799,
      "Ġrepresent": 4800,
      "Ġascertaining": 4801,
      "Ġfalsehood": 4802,
      "unto": 4803,
      "Ġbhurisravas": 4804,
      "Ġrazor": 4805,
      "Ġscarce": 4806,
      "Ġpurand": 4807,
      "fold": 4808,
      "Ġwretched": 4809,
      "Ġcran": 4810,
      "Ġmist": 4811,
      "icing": 4812,
      "Ġhimal": 4813,
      "udha": 4814,
      "Ġsouth": 4815,
      "orns": 4816,
      "whe": 4817,
      "Ġreciting": 4818,
      "Ġsays": 4819,
      "Ġgratification": 4820,
      "Ġblazed": 4821,
      "Ġcaste": 4822,
      "Ġharm": 4823,
      "Ġpenetrating": 4824,
      "Ġthrown": 4825,
      "Ġdescribe": 4826,
      "Ġtreasury": 4827,
      "Ġovertaken": 4828,
      "dyumna": 4829,
      "Ġmortal": 4830,
      "Ġmonkeys": 4831,
      "Ġmemory": 4832,
      "Ġclubs": 4833,
      "Ġtorrent": 4834,
      "jan": 4835,
      "vyasa": 4836,
      "Ġsiv": 4837,
      "Ġhrish": 4838,
      "Ġema": 4839,
      "Ġstained": 4840,
      "usions": 4841,
      "geon": 4842,
      "Ġexile": 4843,
      "Ġtherewith": 4844,
      "Ġdesirable": 4845,
      "elled": 4846,
      "Ġresides": 4847,
      "Ġcontact": 4848,
      "Ġprecious": 4849,
      "Ġhappen": 4850,
      "Ġbetake": 4851,
      "arks": 4852,
      "Ġscattered": 4853,
      "Ġscimit": 4854,
      "Ġsomakas": 4855,
      "Ġobservances": 4856,
      "Ġdifficulty": 4857,
      "Ġsteps": 4858,
      "Ġsuka": 4859,
      "Ġplanets": 4860,
      "Ġtrunks": 4861,
      "Ġerror": 4862,
      "Ġfrequently": 4863,
      "Ġpurandara": 4864,
      "hl": 4865,
      "human": 4866,
      "ision": 4867,
      "idents": 4868,
      "ote": 4869,
      "ereth": 4870,
      "Ġant": 4871,
      "Ġlif": 4872,
      "Ġdoct": 4873,
      "Ġherd": 4874,
      "Ġuniting": 4875,
      "Ġindiff": 4876,
      "cial": 4877,
      "Ġperception": 4878,
      "Ġclo": 4879,
      "Ġpierce": 4880,
      "Ġ23": 4881,
      "Ġkshetra": 4882,
      "Ġguided": 4883,
      "Ġexcess": 4884,
      "ceivable": 4885,
      "Ġlistening": 4886,
      "Ġaccepting": 4887,
      "Ġcounsel": 4888,
      "Ġpurified": 4889,
      "Ġmusic": 4890,
      "Ġincessantly": 4891,
      "Ġbeds": 4892,
      "Ġoffe": 4893,
      "orm": 4894,
      "Ġbere": 4895,
      "Ġgard": 4896,
      "Ġkhand": 4897,
      "alava": 4898,
      "ows": 4899,
      "Ġshel": 4900,
      "isha": 4901,
      "Ġdoor": 4902,
      "Ġcontented": 4903,
      "Ġattacked": 4904,
      "olog": 4905,
      "Ġheavens": 4906,
      "Ġcommon": 4907,
      "Ġpubl": 4908,
      "Ġmaheswara": 4909,
      "Ġkindness": 4910,
      "Ġuttara": 4911,
      "Ġinfant": 4912,
      "Ġproducing": 4913,
      "Ġslaughtering": 4914,
      "Ġinjure": 4915,
      "Ġsilver": 4916,
      "Ġseizing": 4917,
      "Ġrisen": 4918,
      "Ġbanner": 4919,
      "Ġhouseholder": 4920,
      "Ġserpent": 4921,
      "Ġcontempl": 4922,
      "Ġthighs": 4923,
      "Ġlakshmana": 4924,
      "Ġshelter": 4925,
      "dened": 4926,
      "kar": 4927,
      "ony": 4928,
      "Ġkam": 4929,
      "Ġkilling": 4930,
      "Ġvit": 4931,
      "Ġarises": 4932,
      "Ġseas": 4933,
      "Ġtwin": 4934,
      "Ġboast": 4935,
      "Ġblessings": 4936,
      "Ġceas": 4937,
      "Ġconcer": 4938,
      "Ġmatted": 4939,
      "bing": 4940,
      "thi": 4941,
      "Ġoil": 4942,
      "Ġvala": 4943,
      "Ġstain": 4944,
      "resh": 4945,
      "usha": 4946,
      "tern": 4947,
      "Ġenveloped": 4948,
      "Ġcarry": 4949,
      "Ġinde": 4950,
      "Ġspouses": 4951,
      "Ġbowing": 4952,
      "Ġpossible": 4953,
      "Ġaddress": 4954,
      "Ġdurm": 4955,
      "Ġgifted": 4956,
      "Ġcommands": 4957,
      "Ġassigned": 4958,
      "Ġexpi": 4959,
      "Ġsufficient": 4960,
      "Ġproclaim": 4961,
      "Ġfavourite": 4962,
      "chool": 4963,
      "Ġtowns": 4964,
      "Ġmysteries": 4965,
      "Ġcompanionship": 4966,
      "worthy": 4967,
      "Ġextraordinary": 4968,
      "Ġcontentment": 4969,
      "Ġfowler": 4970,
      "Ġgradually": 4971,
      "Ġcardinal": 4972,
      "hy": 4973,
      "Ġlose": 4974,
      "Ġgate": 4975,
      "Ġul": 4976,
      "idable": 4977,
      "Ġforward": 4978,
      "Ġshine": 4979,
      "Ġameric": 4980,
      "meared": 4981,
      "Ġ16": 4982,
      "Ġtaksh": 4983,
      "Ġgrandsons": 4984,
      "Ġstrugg": 4985,
      "bhava": 4986,
      "Ġsixth": 4987,
      "Ġstudied": 4988,
      "Ġdominions": 4989,
      "Ġgladden": 4990,
      "Ġconstitutes": 4991,
      "Ġabsor": 4992,
      "Ġjackal": 4993,
      "Ġvaishampayana": 4994,
      "Ġslowly": 4995,
      "Ġmiddle": 4996,
      "Ġinflamed": 4997,
      "Ġhrishikes": 4998,
      "bal": 4999,
      "face": 5000,
      "mat": 5001,
      "pers": 5002,
      "rem": 5003,
      "Ġcry": 5004,
      "Ġpis": 5005,
      "lls": 5006,
      "apura": 5007,
      "Ġacted": 5008,
      "ateful": 5009,
      "Ġmaha": 5010,
      "areth": 5011,
      "Ġdelusion": 5012,
      "arashtras": 5013,
      "Ġpursued": 5014,
      "Ġmadra": 5015,
      "Ġappropri": 5016,
      "Ġglo": 5017,
      "anges": 5018,
      "Ġjanaka": 5019,
      "Ġpainful": 5020,
      "Ġportions": 5021,
      "Ġcompanions": 5022,
      "Ġmaruts": 5023,
      "Ġendeavour": 5024,
      "Ġorgans": 5025,
      "Ġsandal": 5026,
      "Ġakshau": 5027,
      "Ġdeclar": 5028,
      "Ġtusks": 5029,
      "Ġbidding": 5030,
      "Ġhidimva": 5031,
      "breaths": 5032,
      "dur": 5033,
      "kara": 5034,
      "Ġaj": 5035,
      "Ġcattle": 5036,
      "arm": 5037,
      "Ġvin": 5038,
      "aint": 5039,
      "Ġcongress": 5040,
      "Ġproject": 5041,
      "Ġresults": 5042,
      "Ġdhaum": 5043,
      "mean": 5044,
      "ization": 5045,
      "Ġtread": 5046,
      "Ġrulers": 5047,
      "Ġwond": 5048,
      "Ġteem": 5049,
      "Ġhumanity": 5050,
      "Ġexplain": 5051,
      "Ġjustice": 5052,
      "Ġagreeably": 5053,
      "Ġsummit": 5054,
      "Ġeffulgent": 5055,
      "Ġasht": 5056,
      "Ġweakness": 5057,
      "Ġsleeping": 5058,
      "Ġprovin": 5059,
      "Ġsraddhas": 5060,
      "Ġinhabit": 5061,
      "Ġsmilingly": 5062,
      "Ġfragrant": 5063,
      "markandeya": 5064,
      "!--": 5065,
      "Ġsth": 5066,
      "Ġsir": 5067,
      "Ġschool": 5068,
      "Ġbones": 5069,
      "Ġgalava": 5070,
      "Ġreality": 5071,
      "irya": 5072,
      "Ġarrange": 5073,
      "Ġchyavana": 5074,
      "Ġjar": 5075,
      "Ġperhaps": 5076,
      "Ġrud": 5077,
      "Ġquant": 5078,
      "Ġgoal": 5079,
      "Ġfee": 5080,
      "Ġhappens": 5081,
      "Ġcomposed": 5082,
      "Ġscatter": 5083,
      "Ġvarie": 5084,
      "Ġliveth": 5085,
      "Ġconcili": 5086,
      "Ġsurrounding": 5087,
      "Ġmarkandeya": 5088,
      "Ġsukra": 5089,
      "Ġrajasu": 5090,
      "Ġscarcely": 5091,
      ")?": 5092,
      ",âĢĻ": 5093,
      "eps": 5094,
      "icted": 5095,
      "Ġcu": 5096,
      "standing": 5097,
      "owing": 5098,
      "Ġdem": 5099,
      "alls": 5100,
      "forts": 5101,
      "Ġflash": 5102,
      "Ġours": 5103,
      "Ġpleasures": 5104,
      "Ġthinks": 5105,
      "Ġrepent": 5106,
      "Ġexistent": 5107,
      "Ġearned": 5108,
      "hib": 5109,
      "Ġrattle": 5110,
      "Ġtrack": 5111,
      "Ġtranquil": 5112,
      "Ġfortunate": 5113,
      "Ġarrival": 5114,
      "Ġinfuriated": 5115,
      "Ġtrigartas": 5116,
      "Ġtorrents": 5117,
      "Ġdhaumya": 5118,
      "',": 5119,
      "aco": 5120,
      "gment": 5121,
      "gone": 5122,
      "jna": 5123,
      "Ġfav": 5124,
      "ott": 5125,
      "Ġstates": 5126,
      "Ġmemb": 5127,
      "Ġformidable": 5128,
      "pleased": 5129,
      "Ġafflicting": 5130,
      "Ġhostility": 5131,
      "Ġfalls": 5132,
      "Ġeffic": 5133,
      "Ġconstantly": 5134,
      "Ġappears": 5135,
      "Ġinsult": 5136,
      "Ġsumm": 5137,
      "Ġwinning": 5138,
      "Ġriders": 5139,
      "cont": 5140,
      "Ġpict": 5141,
      "Ġcoursing": 5142,
      "Ġbattling": 5143,
      "Ġsanctified": 5144,
      "Ġbelieve": 5145,
      "Ġumbrella": 5146,
      "Ġtempest": 5147,
      "Ġsamsapt": 5148,
      "Ġtakshaka": 5149,
      "Ġvariegated": 5150,
      "gers": 5151,
      "no": 5152,
      "Ġwake": 5153,
      "Ġcree": 5154,
      "Ġniv": 5155,
      "Ġstretched": 5156,
      "Ġalms": 5157,
      "ously": 5158,
      "Ġbhava": 5159,
      "Ġperish": 5160,
      "they": 5161,
      "Ġordain": 5162,
      "Ġ22": 5163,
      "Ġinvested": 5164,
      "Ġsalvation": 5165,
      "Ġexisting": 5166,
      "hee": 5167,
      "Ġseeks": 5168,
      "Ġdancing": 5169,
      "Ġcalf": 5170,
      "Ġminister": 5171,
      "Ġawake": 5172,
      "Ġabstaining": 5173,
      "Ġuncon": 5174,
      "Ġwandered": 5175,
      "Ġrescuing": 5176,
      "Ġdischarge": 5177,
      "Ġfatigue": 5178,
      "Ġrebirth": 5179,
      "Ġidea": 5180,
      "Ġsystem": 5181,
      "duryodhana": 5182,
      "ev": 5183,
      "hika": 5184,
      "Ġcuri": 5185,
      "Ġdon": 5186,
      "oral": 5187,
      "Ġghee": 5188,
      "Ġsura": 5189,
      "Ġsend": 5190,
      "Ġindian": 5191,
      "Ġforehead": 5192,
      "Ġeleven": 5193,
      "Ġoverth": 5194,
      "Ġpeaco": 5195,
      "Ġfiery": 5196,
      "Ġenjoyments": 5197,
      "Ġconversation": 5198,
      "Ġinstrument": 5199,
      "Ġindulging": 5200,
      "Ġwestern": 5201,
      "Ġfifth": 5202,
      "Ġsmiles": 5203,
      "Ġperpetuator": 5204,
      "Ġyojanas": 5205,
      "Ġhospit": 5206,
      "bhas": 5207,
      "five": 5208,
      "father": 5209,
      "Ġwalking": 5210,
      "Ġinfli": 5211,
      "Ġstrain": 5212,
      "Ġchedis": 5213,
      "Ġshoulders": 5214,
      "Ġunch": 5215,
      "fling": 5216,
      "Ġwouldst": 5217,
      "Ġrefers": 5218,
      "Ġremark": 5219,
      "Ġblaze": 5220,
      "Ġbacks": 5221,
      "Ġassume": 5222,
      "Ġlaughed": 5223,
      "Ġendeav": 5224,
      "Ġcosmic": 5225,
      "fying": 5226,
      "Ġhrid": 5227,
      "Ġfig": 5228,
      "Ġfine": 5229,
      "asm": 5230,
      "raised": 5231,
      "rochana": 5232,
      "ication": 5233,
      "Ġstands": 5234,
      "Ġsets": 5235,
      "Ġlies": 5236,
      "Ġwearing": 5237,
      "Ġcham": 5238,
      "Ġcomfort": 5239,
      "iles": 5240,
      "Ġfond": 5241,
      "Ġamb": 5242,
      "Ġslave": 5243,
      "Ġruled": 5244,
      "Ġ14": 5245,
      "Ġprepar": 5246,
      "Ġhastin": 5247,
      "Ġdivided": 5248,
      "Ġsmiting": 5249,
      "Ġtruths": 5250,
      "Ġefforts": 5251,
      "Ġspeaker": 5252,
      "ikhandi": 5253,
      "Ġsubsist": 5254,
      "Ġtreasures": 5255,
      "Ġwashed": 5256,
      "Ġtrembling": 5257,
      "Ġexperience": 5258,
      "griva": 5259,
      "Ġhaw": 5260,
      "Ġcomforted": 5261,
      "Ġphilosophy": 5262,
      "Ġopportunity": 5263,
      "Ġcuriosity": 5264,
      "Ġdense": 5265,
      "Ġvicious": 5266,
      "aved": 5267,
      "Ġsees": 5268,
      "Ġrather": 5269,
      "achin": 5270,
      "Ġboat": 5271,
      "ung": 5272,
      "Ġquivers": 5273,
      "Ġattent": 5274,
      "Ġattack": 5275,
      "Ġpreva": 5276,
      "Ġswans": 5277,
      "Ġconsistent": 5278,
      "ability": 5279,
      "Ġexceeding": 5280,
      "Ġconfidence": 5281,
      "Ġsuffering": 5282,
      "Ġmatali": 5283,
      "Ġcharacteristic": 5284,
      "Ġapplaud": 5285,
      "Ġlunar": 5286,
      "Ġencompassed": 5287,
      "Ġuplifted": 5288,
      "Ġinconceivable": 5289,
      "Ġcontemplation": 5290,
      "Ġtar": 5291,
      "arana": 5292,
      "Ġpul": 5293,
      "Ġlower": 5294,
      "alks": 5295,
      "Ġshikhandi": 5296,
      "Ġsau": 5297,
      "Ġalight": 5298,
      "Ġendure": 5299,
      "Ġaddicted": 5300,
      "Ġsubala": 5301,
      "Ġdevayani": 5302,
      "Ġconsult": 5303,
      "Ġ24": 5304,
      "rastha": 5305,
      "Ġcommun": 5306,
      "Ġrepress": 5307,
      "Ġvrishasena": 5308,
      "Ġleaders": 5309,
      "Ġmedic": 5310,
      "Ġsaluting": 5311,
      "Ġjudgment": 5312,
      "Ġgrinder": 5313,
      "Ġapplied": 5314,
      "Ġexhausted": 5315,
      "Ġrajasuya": 5316,
      "berg": 5317,
      "giving": 5318,
      "ws": 5319,
      "itting": 5320,
      "ravana": 5321,
      "lets": 5322,
      "Ġvide": 5323,
      "erent": 5324,
      "Ġmeets": 5325,
      "Ġchrist": 5326,
      "indhya": 5327,
      "artana": 5328,
      "Ġcoll": 5329,
      "Ġoffic": 5330,
      "Ġtransformed": 5331,
      "Ġinstruction": 5332,
      "Ġsnat": 5333,
      "Ġexcl": 5334,
      "Ġempt": 5335,
      "Ġconfer": 5336,
      "Ġkek": 5337,
      "acle": 5338,
      "Ġtempt": 5339,
      "unda": 5340,
      "Ġmansions": 5341,
      "Ġorgan": 5342,
      "Ġrouted": 5343,
      "Ġdeserves": 5344,
      "Ġmodesty": 5345,
      "hlada": 5346,
      "Ġing": 5347,
      "Ġdance": 5348,
      "Ġpin": 5349,
      "itary": 5350,
      "Ġtom": 5351,
      "Ġeats": 5352,
      "Ġlab": 5353,
      "Ġnose": 5354,
      "avel": 5355,
      "soever": 5356,
      "asting": 5357,
      "Ġupraised": 5358,
      "umb": 5359,
      "Ġcreate": 5360,
      "Ġcopper": 5361,
      "Ġtimid": 5362,
      "Ġintox": 5363,
      "Ġbegat": 5364,
      "Ġpund": 5365,
      "soul": 5366,
      "Ġsurface": 5367,
      "wait": 5368,
      "Ġfreedom": 5369,
      "Ġcharming": 5370,
      "Ġmiserable": 5371,
      "Ġrescued": 5372,
      "Ġhung": 5373,
      "Ġembodiment": 5374,
      "Ġwithdrawn": 5375,
      "Ġyadu": 5376,
      "Ġfatigued": 5377,
      "Ġprinciples": 5378,
      "Ġkapila": 5379,
      "Ġbereft": 5380,
      "Ġceaseless": 5381,
      "Ġindepend": 5382,
      "Ġhridika": 5383,
      "acious": 5384,
      "nk": 5385,
      "vid": 5386,
      "Ġbud": 5387,
      "enberg": 5388,
      "Ġcav": 5389,
      "Ġded": 5390,
      "Ġpad": 5391,
      "Ġpair": 5392,
      "Ġpac": 5393,
      "Ġlangu": 5394,
      "Ġgent": 5395,
      "Ġven": 5396,
      "Ġvener": 5397,
      "iration": 5398,
      "utenberg": 5399,
      "icide": 5400,
      "Ġexhib": 5401,
      "Ġthence": 5402,
      "Ġsoil": 5403,
      "ption": 5404,
      "Ġbonds": 5405,
      "Ġprescribed": 5406,
      "Ġ29": 5407,
      "Ġsunk": 5408,
      "Ġpop": 5409,
      "Ġ33": 5410,
      "Ġinvoked": 5411,
      "Ġsubjection": 5412,
      "Ġvalue": 5413,
      "Ġdwells": 5414,
      "Ġaccomplishments": 5415,
      "Ġsummer": 5416,
      "Ġwitnessed": 5417,
      "Ġarriving": 5418,
      "Ġtrembled": 5419,
      "Ġtopics": 5420,
      "Ġhabit": 5421,
      "Ġenvy": 5422,
      "Ġsettled": 5423,
      "Ġrudras": 5424,
      "Ġempty": 5425,
      "rata": 5426,
      "through": 5427,
      "Ġape": 5428,
      "issed": 5429,
      "Ġcult": 5430,
      "icate": 5431,
      "Ġstick": 5432,
      "Ġdiss": 5433,
      "Ġjishnu": 5434,
      "Ġelement": 5435,
      "Ġnorthern": 5436,
      "Ġsayest": 5437,
      "Ġsalwa": 5438,
      "Ġexclaim": 5439,
      "Ġframe": 5440,
      "Ġassumes": 5441,
      "Ġinclined": 5442,
      "ipayana": 5443,
      "Ġrequest": 5444,
      "Ġentertained": 5445,
      "Ġmystery": 5446,
      "Ġsenseless": 5447,
      "Ġdhartarashtras": 5448,
      "Ġdebt": 5449,
      "Ġinhabitants": 5450,
      "Ġscattering": 5451,
      "hin": 5452,
      "wish": 5453,
      "inent": 5454,
      "Ġcy": 5455,
      "Ġcra": 5456,
      "anika": 5457,
      "rol": 5458,
      "Ġreck": 5459,
      "Ġwholly": 5460,
      "Ġexact": 5461,
      "Ġenl": 5462,
      "Ġentities": 5463,
      "Ġflame": 5464,
      "Ġpeak": 5465,
      "kshetra": 5466,
      "bhar": 5467,
      "Ġcompleted": 5468,
      "Ġchaste": 5469,
      "Ġspots": 5470,
      "Ġmedit": 5471,
      "itrav": 5472,
      "Ġgrowth": 5473,
      "Ġcoursed": 5474,
      "Ġcalamities": 5475,
      "Ġattendants": 5476,
      "Ġquarter": 5477,
      "Ġincurs": 5478,
      "Ġfuel": 5479,
      "Ġdasarha": 5480,
      "Ġabundant": 5481,
      "Ġincorrect": 5482,
      "Ġmasters": 5483,
      "Ġemaciated": 5484,
      "Ġhrishikesa": 5485,
      "jit": 5486,
      "oh": 5487,
      "tri": 5488,
      "Ġissued": 5489,
      "odes": 5490,
      "Ġyav": 5491,
      "Ġunst": 5492,
      "Ġoffici": 5493,
      "Ġpradyumna": 5494,
      "Ġelect": 5495,
      "Ġusing": 5496,
      "Ġnether": 5497,
      "Ġswa": 5498,
      "Ġ28": 5499,
      "Ġsatya": 5500,
      "Ġsmile": 5501,
      "Ġdecay": 5502,
      "Ġattaches": 5503,
      "Ġinstructed": 5504,
      "Ġconcealed": 5505,
      "Ġcrossing": 5506,
      "Ġspectators": 5507,
      "Ġsesame": 5508,
      "Ġaru": 5509,
      "Ġfill": 5510,
      "Ġmle": 5511,
      "Ġpil": 5512,
      "Ġbending": 5513,
      "Ġreins": 5514,
      "Ġworks": 5515,
      "ilt": 5516,
      "Ġunatt": 5517,
      "Ġspies": 5518,
      "Ġlean": 5519,
      "Ġlegs": 5520,
      "Ġdevel": 5521,
      "Ġrighteously": 5522,
      "Ġsmiled": 5523,
      "Ġinvited": 5524,
      "Ġsuperiors": 5525,
      "Ġcalm": 5526,
      "Ġmarried": 5527,
      "Ġsuffered": 5528,
      "Ġextin": 5529,
      "Ġreflect": 5530,
      "Ġadopting": 5531,
      "Ġversion": 5532,
      "Ġthrowing": 5533,
      "Ġprayers": 5534,
      "Ġprinciple": 5535,
      "Ġwalked": 5536,
      "Ġapartments": 5537,
      "Ġaltar": 5538,
      "Ġsivi": 5539,
      "Ġsamsaptakas": 5540,
      "dest": 5541,
      "iance": 5542,
      "mar": 5543,
      "ply": 5544,
      "ties": 5545,
      "Ġoper": 5546,
      "Ġwished": 5547,
      "oura": 5548,
      "raid": 5549,
      "Ġkala": 5550,
      "Ġissu": 5551,
      "Ġsachi": 5552,
      "Ġananta": 5553,
      "Ġruk": 5554,
      "rief": 5555,
      "Ġ26": 5556,
      "Ġ27": 5557,
      "Ġprime": 5558,
      "abh": 5559,
      "Ġimpure": 5560,
      "Ġdawn": 5561,
      "Ġfruitless": 5562,
      "Ġoppress": 5563,
      "Ġarrayed": 5564,
      "Ġscorched": 5565,
      "Ġjeal": 5566,
      "Ġseparate": 5567,
      "Ġstreams": 5568,
      "Ġunclean": 5569,
      "Ġcensure": 5570,
      "Ġceremonies": 5571,
      "Ġkusa": 5572,
      "Ġdismissed": 5573,
      "Ġflag": 5574,
      "Ġseventy": 5575,
      "Ġkalingas": 5576,
      "Ġtomorrow": 5577,
      "karna": 5578,
      "oqu": 5579,
      "zz": 5580,
      "Ġthor": 5581,
      "Ġbaf": 5582,
      "eral": 5583,
      "Ġfing": 5584,
      "Ġpas": 5585,
      "asing": 5586,
      "Ġsugriva": 5587,
      "pends": 5588,
      "Ġcarrying": 5589,
      "--'": 5590,
      "Ġprav": 5591,
      "Ġprahlada": 5592,
      "Ġundergone": 5593,
      "Ġdownp": 5594,
      "Ġordered": 5595,
      "Ġgoeth": 5596,
      "Ġkurukshetra": 5597,
      "Ġcontinue": 5598,
      "Ġterra": 5599,
      "Ġassured": 5600,
      "Ġ35": 5601,
      "Ġthinkest": 5602,
      "Ġservices": 5603,
      "Ġdisposed": 5604,
      "Ġextensive": 5605,
      "Ġfeeling": 5606,
      "Ġproport": 5607,
      "Ġyielding": 5608,
      "fortun": 5609,
      "Ġdropped": 5610,
      "Ġovertake": 5611,
      "Ġwilder": 5612,
      "Ġexterminated": 5613,
      "Ġtranscending": 5614,
      "Ġimmortal": 5615,
      "Ġpisachas": 5616,
      "Ġhospitality": 5617,
      "cular": 5618,
      "yam": 5619,
      "Ġbrief": 5620,
      "Ġfest": 5621,
      "Ġdakshina": 5622,
      "Ġpup": 5623,
      "alya": 5624,
      "Ġanu": 5625,
      "Ġatri": 5626,
      "Ġenough": 5627,
      "Ġcoat": 5628,
      "Ġmagh": 5629,
      "Ġaccess": 5630,
      "Ġguise": 5631,
      "Ġaccordingly": 5632,
      "anging": 5633,
      "Ġearly": 5634,
      "aurava": 5635,
      "Ġdwellers": 5636,
      "Ġconfusion": 5637,
      "Ġsimple": 5638,
      "Ġextent": 5639,
      "Ġnaga": 5640,
      "ifications": 5641,
      "Ġmouths": 5642,
      "Ġadhiratha": 5643,
      "Ġacquireth": 5644,
      "Ġbreaths": 5645,
      "Ġunrighteousness": 5646,
      "Ġmusical": 5647,
      "Ġderived": 5648,
      "Ġgetting": 5649,
      "Ġfragrance": 5650,
      "Ġinaccess": 5651,
      "Ġthorough": 5652,
      "Ġwilderness": 5653,
      "ium": 5654,
      "such": 5655,
      "vable": 5656,
      "Ġsadh": 5657,
      "Ġwaves": 5658,
      "Ġwounds": 5659,
      "ene": 5660,
      "ounce": 5661,
      "Ġlosing": 5662,
      "Ġgutenberg": 5663,
      "Ġkama": 5664,
      "Ġdemer": 5665,
      "Ġdepends": 5666,
      "Ġchan": 5667,
      "âĢĶ": 5668,
      "Ġafraid": 5669,
      "Ġsouthern": 5670,
      "Ġneg": 5671,
      "enares": 5672,
      "Ġrelation": 5673,
      "vasudeva": 5674,
      "Ġhop": 5675,
      "Ġ32": 5676,
      "Ġpassage": 5677,
      "Ġadvice": 5678,
      "Ġdrunk": 5679,
      "Ġturning": 5680,
      "Ġtrav": 5681,
      "Ġindication": 5682,
      "Ġdict": 5683,
      "Ġdamsels": 5684,
      "Ġforgive": 5685,
      "Ġdispel": 5686,
      "Ġcrushing": 5687,
      "Ġyouthful": 5688,
      "Ġavoiding": 5689,
      "Ġtribute": 5690,
      "Ġsubsisting": 5691,
      "Ġpancala": 5692,
      "Ġdistinction": 5693,
      "Ġyajn": 5694,
      "Ġsustenance": 5695,
      "Ġsexual": 5696,
      "Ġauthority": 5697,
      "Ġbaffling": 5698,
      "bered": 5699,
      "pts": 5700,
      "uc": 5701,
      "Ġow": 5702,
      "Ġbenares": 5703,
      "erves": 5704,
      "Ġtest": 5705,
      "Ġtaught": 5706,
      "Ġcried": 5707,
      "Ġtot": 5708,
      "leep": 5709,
      "ayan": 5710,
      "uting": 5711,
      "uli": 5712,
      "Ġspent": 5713,
      "Ġactually": 5714,
      "Ġdevice": 5715,
      "Ġpriv": 5716,
      "Ġretired": 5717,
      "waipayana": 5718,
      "Ġeffort": 5719,
      "Ġcounter": 5720,
      "Ġcrowd": 5721,
      "Ġwelcome": 5722,
      "Ġgenerally": 5723,
      "Ġfinally": 5724,
      "Ġtreated": 5725,
      "Ġfishes": 5726,
      "Ġdragging": 5727,
      "Ġduhsh": 5728,
      "Ġexerting": 5729,
      "Ġviolence": 5730,
      "Ġcrooked": 5731,
      "Ġmatters": 5732,
      "Ġvultures": 5733,
      "Ġbitter": 5734,
      "Ġcleansing": 5735,
      "Ġclothes": 5736,
      "Ġjealous": 5737,
      "Ġinaccessible": 5738,
      "hil": 5739,
      "ji": 5740,
      "Ġserved": 5741,
      "real": 5742,
      "Ġfury": 5743,
      "Ġdig": 5744,
      "Ġtop": 5745,
      "aked": 5746,
      "Ġconve": 5747,
      "uses": 5748,
      "Ġexternal": 5749,
      "Ġchant": 5750,
      "Ġimper": 5751,
      "Ġbeholds": 5752,
      "Ġprotects": 5753,
      "version": 5754,
      "Ġsmell": 5755,
      "Ġhole": 5756,
      "Ġbirths": 5757,
      "Ġblessing": 5758,
      "Ġrange": 5759,
      "Ġstudents": 5760,
      "Ġshowing": 5761,
      "Ġavar": 5762,
      "Ġpaths": 5763,
      "Ġbrill": 5764,
      "Ġsusarman": 5765,
      "coming": 5766,
      "Ġrecollecting": 5767,
      "Ġfulfilled": 5768,
      "Ġparents": 5769,
      "Ġgambling": 5770,
      "wheels": 5771,
      "Ġvinata": 5772,
      "Ġmembers": 5773,
      "iber": 5774,
      "Ġaud": 5775,
      "Ġhall": 5776,
      "Ġmouse": 5777,
      "Ġdied": 5778,
      "itive": 5779,
      "Ġgrew": 5780,
      "ley": 5781,
      "Ġyaksha": 5782,
      "Ġmeal": 5783,
      "quainted": 5784,
      "Ġnotes": 5785,
      "Ġamaz": 5786,
      "Ġfails": 5787,
      "Ġleather": 5788,
      "Ġdevour": 5789,
      "Ġusanas": 5790,
      "rink": 5791,
      "Ġbelow": 5792,
      "Ġsatyavati": 5793,
      "Ġsuppl": 5794,
      "handed": 5795,
      "Ġcharioteers": 5796,
      "Ġconsidered": 5797,
      "Ġcentre": 5798,
      "Ġvigorous": 5799,
      "Ġperfumes": 5800,
      "Ġgroup": 5801,
      "Ġhastinapura": 5802,
      "ares": 5803,
      "creat": 5804,
      "des": 5805,
      "Ġ[": 5806,
      "Ġbos": 5807,
      "Ġhol": 5808,
      "Ġhips": 5809,
      "Ġcrem": 5810,
      "Ġpron": 5811,
      "Ġinform": 5812,
      "Ġiniti": 5813,
      "Ġvari": 5814,
      "avakra": 5815,
      "anded": 5816,
      "Ġdisso": 5817,
      "Ġabodes": 5818,
      "Ġ25": 5819,
      "Ġequival": 5820,
      "Ġ30": 5821,
      "Ġfiercely": 5822,
      "Ġslender": 5823,
      "Ġdhrishtaketu": 5824,
      "Ġweakened": 5825,
      "Ġenquire": 5826,
      "Ġsigns": 5827,
      "Ġexpectation": 5828,
      "Ġvillage": 5829,
      "Ġreferred": 5830,
      "arshana": 5831,
      "Ġmessenger": 5832,
      "Ġyellow": 5833,
      "Ġobey": 5834,
      "Ġsweta": 5835,
      "Ġprovinces": 5836,
      "Ġquantity": 5837,
      "greg": 5838,
      "arily": 5839,
      "Ġdign": 5840,
      "Ġwight": 5841,
      "Ġbells": 5842,
      "seth": 5843,
      "Ġkamv": 5844,
      "Ġrewards": 5845,
      "ales": 5846,
      "imo": 5847,
      "Ġshed": 5848,
      "Ġyam": 5849,
      "Ġstrange": 5850,
      "Ġliqu": 5851,
      "ulous": 5852,
      "Ġworn": 5853,
      "udes": 5854,
      "Ġdisun": 5855,
      "Ġadityas": 5856,
      "arta": 5857,
      "ansa": 5858,
      "Ġattended": 5859,
      "Ġapparent": 5860,
      "Ġplain": 5861,
      "Ġvanity": 5862,
      "Ġimpress": 5863,
      "Ġapproved": 5864,
      "Ġlearn": 5865,
      "Ġglances": 5866,
      "Ġshowered": 5867,
      "Ġastika": 5868,
      "Ġsarad": 5869,
      "Ġreads": 5870,
      "Ġomnis": 5871,
      "Ġcorrectly": 5872,
      "Ġmentally": 5873,
      "Ġobedience": 5874,
      "Ġmessage": 5875,
      "Ġdevotee": 5876,
      "Ġdimin": 5877,
      "Ġautum": 5878,
      "Ġcranes": 5879,
      "Ġkhandava": 5880,
      "Ġgentle": 5881,
      "Ġduhshasana": 5882,
      "Ġequivalent": 5883,
      "Ġthread": 5884,
      "Ġaversion": 5885,
      "Ġsans": 5886,
      "Ġbree": 5887,
      "Ġbrings": 5888,
      "Ġtalk": 5889,
      "Ġdy": 5890,
      "Ġek": 5891,
      "Ġkan": 5892,
      "idden": 5893,
      "Ġsafe": 5894,
      "Ġdeg": 5895,
      "Ġuns": 5896,
      "Ġuntil": 5897,
      "Ġvip": 5898,
      "iously": 5899,
      "eously": 5900,
      "Ġflowed": 5901,
      "yasachin": 5902,
      "Ġprotectors": 5903,
      "upa": 5904,
      "Ġrelated": 5905,
      "Ġremoved": 5906,
      "Ġvanished": 5907,
      "Ġinstance": 5908,
      "uki": 5909,
      "Ġearning": 5910,
      "Ġoceans": 5911,
      "Ġsimply": 5912,
      "parable": 5913,
      "Ġmarks": 5914,
      "Ġmarked": 5915,
      "Ġrenoun": 5916,
      "Ġfeelings": 5917,
      "Ġsavyasachin": 5918,
      "Ġinnoc": 5919,
      "adhara": 5920,
      "Ġascertained": 5921,
      "Ġsupporting": 5922,
      "Ġsporting": 5923,
      "Ġkaike": 5924,
      "Ġjackals": 5925,
      "Ġcourses": 5926,
      "Ġceremony": 5927,
      "Ġcrossed": 5928,
      "Ġpushkara": 5929,
      "Ġpersec": 5930,
      "Ġteeming": 5931,
      "iest": 5932,
      "uries": 5933,
      "Ġcam": 5934,
      "Ġdren": 5935,
      "aled": 5936,
      "Ġstro": 5937,
      "Ġsports": 5938,
      "Ġresp": 5939,
      "Ġrub": 5940,
      "Ġkund": 5941,
      "Ġadded": 5942,
      "Ġthroughout": 5943,
      "Ġutmost": 5944,
      "Ġheavenly": 5945,
      "nihil": 5946,
      "Ġhumili": 5947,
      "Ġrests": 5948,
      "Ġkingdoms": 5949,
      "Ġnumberless": 5950,
      "Ġemancipated": 5951,
      "Ġseize": 5952,
      "Ġgraceful": 5953,
      "Ġfinished": 5954,
      "Ġadhy": 5955,
      "Ġdistinct": 5956,
      "Ġimmortality": 5957,
      "Ġbarley": 5958,
      "Ġpursuit": 5959,
      "Ġvigour": 5960,
      "skilled": 5961,
      "Ġuluka": 5962,
      "Ġcreepers": 5963,
      "Ġpilgri": 5964,
      "ah": 5965,
      "fer": 5966,
      "rine": 5967,
      "Ġath": 5968,
      "Ġswar": 5969,
      "Ġsala": 5970,
      "Ġsmeared": 5971,
      "Ġwol": 5972,
      "Ġhoma": 5973,
      "Ġfever": 5974,
      "Ġpat": 5975,
      "Ġpet": 5976,
      "Ġparas": 5977,
      "Ġlore": 5978,
      "omed": 5979,
      "ime": 5980,
      "Ġshown": 5981,
      "Ġshining": 5982,
      "ically": 5983,
      "Ġraces": 5984,
      "Ġupwards": 5985,
      "Ġagn": 5986,
      "Ġattem": 5987,
      "avasu": 5988,
      "Ġrelate": 5989,
      "Ġrelating": 5990,
      "Ġrecourse": 5991,
      "Ġinstantly": 5992,
      "Ġproperties": 5993,
      "Ġextending": 5994,
      "Ġinterp": 5995,
      "Ġrecover": 5996,
      "Ġdispelling": 5997,
      "Ġrequire": 5998,
      "Ġcentury": 5999,
      "Ġseparated": 6000,
      "Ġdiseases": 6001,
      "Ġmarutta": 6002,
      "Ġinfuriate": 6003,
      "Ġobliged": 6004,
      "Ġengl": 6005,
      "sambhava": 6006,
      "ikshit": 6007,
      "Ġsadhyas": 6008,
      "ec": 6009,
      "ien": 6010,
      "mi": 6011,
      "noon": 6012,
      "sir": 6013,
      "Ġrom": 6014,
      "Ġthri": 6015,
      "Ġwounded": 6016,
      "Ġpiety": 6017,
      "Ġbef": 6018,
      "Ġgather": 6019,
      "Ġnet": 6020,
      "Ġasleep": 6021,
      "isht": 6022,
      "Ġannihil": 6023,
      "Ġseest": 6024,
      "peth": 6025,
      "Ġgreatness": 6026,
      "Ġcha": 6027,
      "ilies": 6028,
      "Ġunh": 6029,
      "Ġpercept": 6030,
      "Ġcooked": 6031,
      "ensible": 6032,
      "Ġprimal": 6033,
      "Ġscru": 6034,
      "Ġmahat": 6035,
      "Ġvalu": 6036,
      "Ġexpressed": 6037,
      "Ġdifficulties": 6038,
      "Ġaffected": 6039,
      "Ġprofusion": 6040,
      "Ġcapt": 6041,
      "Ġdeparture": 6042,
      "Ġscorching": 6043,
      "Ġlaughing": 6044,
      "Ġhymn": 6045,
      "Ġfifty": 6046,
      "Ġvillages": 6047,
      "Ġcollected": 6048,
      "Ġtorto": 6049,
      "Ġgreet": 6050,
      "Ġcustom": 6051,
      "Ġsanskrit": 6052,
      "uck": 6053,
      "Ġbank": 6054,
      "Ġfan": 6055,
      "aratha": 6056,
      "Ġdressed": 6057,
      "Ġkos": 6058,
      "Ġvad": 6059,
      "Ġheap": 6060,
      "iments": 6061,
      "utation": 6062,
      "urance": 6063,
      "Ġmanif": 6064,
      "Ġdespa": 6065,
      "Ġrespected": 6066,
      "Ġvich": 6067,
      "ensions": 6068,
      "Ġundert": 6069,
      "Ġswoon": 6070,
      "Ġtremend": 6071,
      "Ġskins": 6072,
      "Ġpursue": 6073,
      "Ġterrified": 6074,
      "Ġresting": 6075,
      "Ġtender": 6076,
      "Ġconstant": 6077,
      "Ġcommander": 6078,
      "Ġcareered": 6079,
      "Ġinjured": 6080,
      "Ġdaitya": 6081,
      "Ġscient": 6082,
      "Ġfamilies": 6083,
      "Ġstraw": 6084,
      "Ġavoided": 6085,
      "Ġeffects": 6086,
      "aternal": 6087,
      "Ġseniors": 6088,
      "Ġchandala": 6089,
      "Ġaffairs": 6090,
      "Ġgeneraliss": 6091,
      "Ġimparted": 6092,
      "Ġmagnanim": 6093,
      "Ġoffend": 6094,
      ".)": 6095,
      "ban": 6096,
      "ek": 6097,
      "rity": 6098,
      "yot": 6099,
      "Ġpear": 6100,
      "Ġkaus": 6101,
      "Ġvish": 6102,
      "idently": 6103,
      "among": 6104,
      "Ġstar": 6105,
      "Ġann": 6106,
      "Ġmete": 6107,
      "Ġextinguished": 6108,
      "oursed": 6109,
      "Ġram": 6110,
      "umber": 6111,
      "indh": 6112,
      "Ġunm": 6113,
      "Ġabsol": 6114,
      "Ġquite": 6115,
      "Ġspecial": 6116,
      "Ġattaineth": 6117,
      "Ġillum": 6118,
      "Ġblame": 6119,
      "rash": 6120,
      "Ġgiveth": 6121,
      "Ġparam": 6122,
      "Ġlighted": 6123,
      "Ġclever": 6124,
      "Ġcomplet": 6125,
      "Ġawak": 6126,
      "Ġsamadhi": 6127,
      "Ġdrinks": 6128,
      "Ġinspiring": 6129,
      "Ġdisregarded": 6130,
      "Ġcharacterised": 6131,
      "Ġsindhu": 6132,
      "Ġmatsya": 6133,
      "Ġaiming": 6134,
      "cerity": 6135,
      "Ġfunctions": 6136,
      "Ġopposite": 6137,
      "Ġexercise": 6138,
      "Ġindifferent": 6139,
      "Ġarrangements": 6140,
      "Ġvenerable": 6141,
      "Ġgeneralissimo": 6142,
      "12": 6143,
      "hatri": 6144,
      "rance": 6145,
      "spre": 6146,
      "Ġhorns": 6147,
      "edged": 6148,
      "Ġfix": 6149,
      "Ġtorn": 6150,
      "Ġpred": 6151,
      "Ġtoil": 6152,
      "Ġvom": 6153,
      "avi": 6154,
      "ivya": 6155,
      "Ġlieth": 6156,
      "kets": 6157,
      "Ġspl": 6158,
      "Ġagric": 6159,
      "Ġcanni": 6160,
      "Ġowning": 6161,
      "Ġattra": 6162,
      "iked": 6163,
      "Ġattainable": 6164,
      "Ġperforms": 6165,
      "Ġremaining": 6166,
      "Ġscion": 6167,
      "Ġtransform": 6168,
      "Ġgandhi": 6169,
      "Ġrite": 6170,
      "Ġbreaking": 6171,
      "Ġacceptance": 6172,
      "Ġtravel": 6173,
      "Ġcharanas": 6174,
      "Ġausterest": 6175,
      "Ġsita": 6176,
      "Ġbeside": 6177,
      "Ġpromised": 6178,
      "Ġwithdraw": 6179,
      "Ġdomesticity": 6180,
      "Ġconsideration": 6181,
      "Ġhungry": 6182,
      "Ġinnocent": 6183,
      "Ġcompletion": 6184,
      "Ġagricult": 6185,
      "cch": 6186,
      "hot": 6187,
      "ient": 6188,
      "yes": 6189,
      "yaka": 6190,
      "arvan": 6191,
      "Ġpaternal": 6192,
      "Ġego": 6193,
      "Ġbearer": 6194,
      "Ġlam": 6195,
      "Ġlines": 6196,
      "staff": 6197,
      "utsu": 6198,
      "aku": 6199,
      "Ġupper": 6200,
      "Ġcreating": 6201,
      "Ġresisting": 6202,
      "their": 6203,
      "Ġsubsequ": 6204,
      "Ġpreced": 6205,
      "Ġcontinually": 6206,
      "Ġpress": 6207,
      "Ġproceeds": 6208,
      "Ġdivinity": 6209,
      "Ġvasuki": 6210,
      "Ġdestroys": 6211,
      "Ġnarrated": 6212,
      "endra": 6213,
      "Ġoppressed": 6214,
      "Ġrestraints": 6215,
      "Ġinstruct": 6216,
      "Ġsteady": 6217,
      "icians": 6218,
      "Ġadhere": 6219,
      "Ġmotives": 6220,
      "Ġpropiti": 6221,
      "Ġtruthfulness": 6222,
      "Ġprayer": 6223,
      "Ġpigeon": 6224,
      "Ġslightest": 6225,
      "Ġimag": 6226,
      "Ġventure": 6227,
      "Ġpublic": 6228,
      "Ġvitals": 6229,
      "Ġexpiation": 6230,
      "Ġofficers": 6231,
      "wishers": 6232,
      "Ġissuing": 6233,
      "but": 6234,
      "kind": 6235,
      "lies": 6236,
      "oes": 6237,
      "Ġmud": 6238,
      "Ġpained": 6239,
      "Ġinflu": 6240,
      "Ġgro": 6241,
      "Ġaris": 6242,
      "Ġstaff": 6243,
      "Ġthereby": 6244,
      "arded": 6245,
      "Ġjaya": 6246,
      "Ġages": 6247,
      "Ġcreates": 6248,
      "Ġcontra": 6249,
      "Ġleg": 6250,
      "Ġpersonal": 6251,
      "Ġkrishnas": 6252,
      "Ġsung": 6253,
      "Ġdeliber": 6254,
      "Ġguide": 6255,
      "Ġhostilities": 6256,
      "Ġhumble": 6257,
      "Ġdraw": 6258,
      "Ġimplying": 6259,
      "Ġ36": 6260,
      "Ġdiscoursed": 6261,
      "Ġparty": 6262,
      "Ġbelief": 6263,
      "Ġritw": 6264,
      "Ġvalhika": 6265,
      "ceives": 6266,
      "Ġresolve": 6267,
      "Ġbreathing": 6268,
      "Ġcruelty": 6269,
      "Ġwashing": 6270,
      "Ġgazed": 6271,
      "Ġserpents": 6272,
      "Ġpunishment": 6273,
      "Ġkshetrajna": 6274,
      "Ġdeclarations": 6275,
      "Ġavarice": 6276,
      "cle": 6277,
      "lomasa": 6278,
      "pres": 6279,
      "vri": 6280,
      "Ġax": 6281,
      "onge": 6282,
      "Ġfil": 6283,
      "Ġganges": 6284,
      "set": 6285,
      "Ġnin": 6286,
      "Ġreleas": 6287,
      "ayudha": 6288,
      "avrata": 6289,
      "Ġnoted": 6290,
      "cken": 6291,
      "Ġpermitted": 6292,
      "ossible": 6293,
      "Ġloc": 6294,
      "urning": 6295,
      "Ġenters": 6296,
      "Ġbloss": 6297,
      "Ġvasu": 6298,
      "Ġfathers": 6299,
      "Ġtransp": 6300,
      "Ġblessedness": 6301,
      "Ġeloqu": 6302,
      "Ġevils": 6303,
      "Ġservant": 6304,
      "Ġinjun": 6305,
      "Ġdriven": 6306,
      "ashed": 6307,
      "Ġreflection": 6308,
      "Ġstayed": 6309,
      "Ġlux": 6310,
      "amvusha": 6311,
      "Ġplanet": 6312,
      "Ġquarrel": 6313,
      "Ġmotionless": 6314,
      "Ġdeceitful": 6315,
      "Ġdistributed": 6316,
      "Ġmelod": 6317,
      "Ġunwilling": 6318,
      "Ġdischarged": 6319,
      "Ġdisguise": 6320,
      "Ġhirany": 6321,
      "Ġterrace": 6322,
      "Ġtremendous": 6323,
      "Ġawakened": 6324,
      "Ġarisen": 6325,
      ")!": 6326,
      "bes": 6327,
      "grown": 6328,
      "var": 6329,
      "Ġava": 6330,
      "Ġsch": 6331,
      "Ġbind": 6332,
      "ery": 6333,
      "Ġtied": 6334,
      "ane": 6335,
      "Ġkra": 6336,
      "Ġvayu": 6337,
      "idi": 6338,
      "quished": 6339,
      "Ġnotice": 6340,
      "Ġprob": 6341,
      "apara": 6342,
      "Ġrapt": 6343,
      "rishna": 6344,
      "Ġunless": 6345,
      "Ġperman": 6346,
      "Ġfac": 6347,
      "Ġheroism": 6348,
      "assing": 6349,
      "olen": 6350,
      "Ġswan": 6351,
      "Ġrefused": 6352,
      "Ġyonder": 6353,
      "auspicious": 6354,
      "Ġgandhamad": 6355,
      "Ġwishing": 6356,
      "Ġrestored": 6357,
      "ukunda": 6358,
      "Ġdanava": 6359,
      "being": 6360,
      "Ġyugas": 6361,
      "Ġashram": 6362,
      "Ġcircle": 6363,
      "Ġsanction": 6364,
      "sacrifices": 6365,
      "Ġforgiving": 6366,
      "Ġbride": 6367,
      "Ġyuyutsu": 6368,
      "Ġkail": 6369,
      "Ġumbrellas": 6370,
      "Ġandhakas": 6371,
      "Ġreproach": 6372,
      "Ġinsects": 6373,
      "Ġvaluable": 6374,
      "Ġgandhamadana": 6375,
      "kit": 6376,
      "side": 6377,
      "Ġah": 6378,
      "Ġsore": 6379,
      "Ġtank": 6380,
      "Ġtired": 6381,
      "Ġcres": 6382,
      "iture": 6383,
      "Ġetern": 6384,
      "Ġkanka": 6385,
      "Ġheaps": 6386,
      "adv": 6387,
      "imp": 6388,
      "Ġsag": 6389,
      "Ġarch": 6390,
      "aping": 6391,
      "Ġslumber": 6392,
      "Ġintention": 6393,
      "aunt": 6394,
      "Ġboar": 6395,
      "Ġforming": 6396,
      "inkling": 6397,
      "Ġpuranas": 6398,
      "Ġ34": 6399,
      "Ġsuperhuman": 6400,
      "enedi": 6401,
      "Ġvisited": 6402,
      "Ġdwapara": 6403,
      "Ġsorrows": 6404,
      "Ġburden": 6405,
      "Ġcharged": 6406,
      "Ġdominion": 6407,
      "Ġsym": 6408,
      "Ġassail": 6409,
      "Ġomni": 6410,
      "Ġderive": 6411,
      "Ġmingled": 6412,
      "Ġprostrate": 6413,
      "Ġconciliation": 6414,
      "Ġchamber": 6415,
      "Ġintoxicated": 6416,
      "Ġdictates": 6417,
      "Ġyamuna": 6418,
      "Ġenglish": 6419,
      "bless": 6420,
      "dana": 6421,
      "jour": 6422,
      "vity": 6423,
      "Ġbenedi": 6424,
      "Ġcasts": 6425,
      "Ġdin": 6426,
      "Ġinqu": 6427,
      "Ġgained": 6428,
      "Ġnand": 6429,
      "Ġvic": 6430,
      "Ġiksh": 6431,
      "ics": 6432,
      "Ġconso": 6433,
      "Ġconvi": 6434,
      "ilight": 6435,
      "Ġago": 6436,
      "Ġsojour": 6437,
      "Ġoverp": 6438,
      "Ġneigh": 6439,
      "Ġchiefs": 6440,
      "Ġimpossible": 6441,
      "Ġlearnt": 6442,
      "bhadra": 6443,
      "Ġinfam": 6444,
      "mitra": 6445,
      "Ġinterv": 6446,
      "Ġprevent": 6447,
      "Ġidentity": 6448,
      "Ġmisunder": 6449,
      "mediate": 6450,
      "Ġreaching": 6451,
      "Ġyadavas": 6452,
      "faced": 6453,
      "Ġfuneral": 6454,
      "Ġquietly": 6455,
      "Ġrendering": 6456,
      "Ġforsake": 6457,
      "Ġchecking": 6458,
      "Ġforbidden": 6459,
      "Ġdurmukha": 6460,
      "Ġstruggling": 6461,
      "Ġgladdening": 6462,
      "Ġsummits": 6463,
      "Ġpinaka": 6464,
      "Ġbosom": 6465,
      "Ġdignity": 6466,
      "Ġvichitrav": 6467,
      "Ġlamps": 6468,
      "Ġkailasa": 6469,
      "dent": 6470,
      "iant": 6471,
      "Ġpairs": 6472,
      "Ġnir": 6473,
      "oted": 6474,
      "Ġsutas": 6475,
      "Ġarising": 6476,
      "Ġalamvusha": 6477,
      "uls": 6478,
      "nacular": 6479,
      "Ġbhojas": 6480,
      "ositions": 6481,
      "Ġregulated": 6482,
      "pted": 6483,
      "ighth": 6484,
      "Ġnobody": 6485,
      "Ġtwilight": 6486,
      "Ġvernacular": 6487,
      "adeth": 6488,
      "Ġbrahmanicide": 6489,
      "Ġbodily": 6490,
      "Ġincarn": 6491,
      "Ġincidents": 6492,
      "Ġneut": 6493,
      "Ġgram": 6494,
      "Ġoutward": 6495,
      "ampore": 6496,
      "Ġdelicious": 6497,
      "Ġplough": 6498,
      "Ġdepth": 6499,
      "Ġchekit": 6500,
      "Ġevident": 6501,
      "Ġwails": 6502,
      "Ġsixteen": 6503,
      "?'\"": 6504,
      "Ġseventh": 6505,
      "Ġprofuse": 6506,
      "Ġcrown": 6507,
      "Ġcrows": 6508,
      "Ġtrad": 6509,
      "Ġvoices": 6510,
      "Ġrealms": 6511,
      "Ġtemples": 6512,
      "Ġwretches": 6513,
      "Ġvaisravana": 6514,
      "Ġserampore": 6515,
      "Ġsubsidi": 6516,
      "Ġtranslators": 6517,
      "Ġcalling": 6518,
      "Ġrevol": 6519,
      "Ġvessels": 6520,
      "Ġdiscover": 6521,
      "ibility": 6522,
      "Ġdwaraka": 6523,
      "Ġstopped": 6524,
      "Ġgardens": 6525,
      "Ġendeavoured": 6526,
      "Ġceaselessly": 6527,
      "Ġindependent": 6528,
      "Ġcaval": 6529,
      "Ġfingers": 6530,
      "Ġleathern": 6531,
      "Ġsubsidiary": 6532,
      "po": 6533,
      "Ġthro": 6534,
      "Ġcrying": 6535,
      "Ġmith": 6536,
      "Ġrent": 6537,
      "Ġug": 6538,
      "owered": 6539,
      "Ġforget": 6540,
      "ishment": 6541,
      "otion": 6542,
      "Ġsucc": 6543,
      "rust": 6544,
      "Ġargh": 6545,
      "Ġstep": 6546,
      "Ġstop": 6547,
      "Ġstolen": 6548,
      "ket": 6549,
      "Ġrare": 6550,
      "Ġrains": 6551,
      "Ġrahu": 6552,
      "Ġspiked": 6553,
      "Ġtwain": 6554,
      "Ġoffice": 6555,
      "Ġimmen": 6556,
      "Ġloos": 6557,
      "Ġcontinuous": 6558,
      "Ġdeliver": 6559,
      "Ġpleasant": 6560,
      "Ġseekest": 6561,
      "Ġscriptural": 6562,
      "Ġranchi": 6563,
      "Ġvidar": 6564,
      "Ġdrivers": 6565,
      "Ġintermediate": 6566,
      "Ġkasi": 6567,
      "Ġtribe": 6568,
      "Ġquarre": 6569,
      "ramas": 6570,
      "erers": 6571,
      "Ġjumping": 6572,
      "Ġgovern": 6573,
      "Ġdeterm": 6574,
      "meanwhile": 6575,
      "asmuch": 6576,
      "Ġexactly": 6577,
      "Ġchekitana": 6578,
      "Ġimmense": 6579,
      "krishna": 6580,
      "oid": 6581,
      "vat": 6582,
      "Ġthin": 6583,
      "ince": 6584,
      "Ġsreed": 6585,
      "Ġfet": 6586,
      "Ġcave": 6587,
      "Ġmiss": 6588,
      "Ġmien": 6589,
      "Ġpav": 6590,
      "Ġinauspicious": 6591,
      "Ġeaster": 6592,
      "Ġlance": 6593,
      "Ġheight": 6594,
      "Ġdefect": 6595,
      "ulc": 6596,
      "Ġwept": 6597,
      "athered": 6598,
      "Ġagent": 6599,
      "Ġvib": 6600,
      "Ġcogn": 6601,
      "Ġoffices": 6602,
      "Ġsincerity": 6603,
      "Ġattire": 6604,
      "Ġpressed": 6605,
      "Ġtreta": 6606,
      "Ġimped": 6607,
      "Ġpanic": 6608,
      "Ġthirteen": 6609,
      "acity": 6610,
      "ikeya": 6611,
      "Ġwielding": 6612,
      "existent": 6613,
      "Ġtemple": 6614,
      "Ġdescendants": 6615,
      "Ġdasaratha": 6616,
      "Ġabundance": 6617,
      "Ġincomparable": 6618,
      "Ġamerica": 6619,
      "Ġefficacy": 6620,
      "Ġvigorously": 6621,
      "blessed": 6622,
      "Ġcavalry": 6623,
      "Ġsreedhara": 6624,
      "four": 6625,
      "ibly": 6626,
      "prastha": 6627,
      "uals": 6628,
      "Ġsaving": 6629,
      "Ġhat": 6630,
      "Ġhate": 6631,
      "atkar": 6632,
      "Ġmira": 6633,
      "Ġinasmuch": 6634,
      "Ġlomasa": 6635,
      "rodu": 6636,
      "Ġreverse": 6637,
      "Ġuter": 6638,
      "Ġstated": 6639,
      "Ġconceived": 6640,
      "respect": 6641,
      "api": 6642,
      "Ġmyri": 6643,
      "Ġupan": 6644,
      "Ġaggreg": 6645,
      "Ġslaves": 6646,
      "Ġintrodu": 6647,
      "plicity": 6648,
      "Ġresort": 6649,
      "mbol": 6650,
      "Ġdevala": 6651,
      "Ġwatch": 6652,
      "urally": 6653,
      "deva": 6654,
      "Ġinvol": 6655,
      "Ġsuperiority": 6656,
      "Ġfriendly": 6657,
      "hip": 6658,
      "Ġinsulted": 6659,
      "Ġbenefiting": 6660,
      "Ġsilently": 6661,
      "Ġincluded": 6662,
      "Ġmeasures": 6663,
      "Ġgarland": 6664,
      "tinguish": 6665,
      "Ġdeceased": 6666,
      "Ġflowing": 6667,
      "Ġdrop": 6668,
      "Ġeasy": 6669,
      "Ġpursuing": 6670,
      "Ġdevotees": 6671,
      "Ġmonkey": 6672,
      "Ġdhartarashtra": 6673,
      "Ġsatisfied": 6674,
      "Ġamidst": 6675,
      "Ġhawk": 6676,
      "Ġmagnanimous": 6677,
      "course": 6678,
      "conscious": 6679,
      "eks": 6680,
      "leness": 6681,
      "Ġrows": 6682,
      "Ġthrew": 6683,
      "Ġbands": 6684,
      "Ġbreed": 6685,
      "ont": 6686,
      "Ġdir": 6687,
      "Ġpledge": 6688,
      "ller": 6689,
      "Ġeighth": 6690,
      "Ġbeast": 6691,
      "Ġlamp": 6692,
      "seen": 6693,
      "rog": 6694,
      "Ġreject": 6695,
      "Ġshade": 6696,
      "amana": 6697,
      "Ġkingly": 6698,
      "pets": 6699,
      "Ġwear": 6700,
      "Ġenab": 6701,
      "Ġunsu": 6702,
      "Ġcarless": 6703,
      "Ġabounded": 6704,
      "crimin": 6705,
      "Ġvice": 6706,
      "lessly": 6707,
      "Ġdevaki": 6708,
      "Ġterms": 6709,
      "Ġdelicate": 6710,
      "Ġtrod": 6711,
      "Ġterrific": 6712,
      "Ġdiscours": 6713,
      "Ġparikshit": 6714,
      "Ġcausal": 6715,
      "petals": 6716,
      "Ġsuccessful": 6717,
      "Ġshows": 6718,
      "Ġdiscipl": 6719,
      "Ġindicate": 6720,
      "Ġdiet": 6721,
      "Ġridic": 6722,
      "Ġsovereign": 6723,
      "Ġgrowing": 6724,
      "Ġdescended": 6725,
      "Ġimmovable": 6726,
      "Ġcolours": 6727,
      "Ġfatal": 6728,
      "Ġdaruka": 6729,
      "Ġstupefaction": 6730,
      "Ġembracing": 6731,
      "Ġvikartana": 6732,
      "Ġconqueror": 6733,
      "Ġmagadha": 6734,
      "Ġhomage": 6735,
      "Ġstretching": 6736,
      "Ġtrouble": 6737,
      "Ġstainless": 6738,
      "Ġashtavakra": 6739,
      "Ġpreparations": 6740,
      "Ġexclaimed": 6741,
      "bharata": 6742,
      "Ġpearls": 6743,
      "Ġmithila": 6744,
      "axes": 6745,
      "ele": 6746,
      "fy": 6747,
      "fety": 6748,
      "Ġwine": 6749,
      "Ġbr": 6750,
      "Ġtoward": 6751,
      "Ġwid": 6752,
      "Ġgen": 6753,
      "Ġket": 6754,
      "adru": 6755,
      "Ġshakra": 6756,
      "Ġsafety": 6757,
      "Ġsections": 6758,
      "Ġconches": 6759,
      "Ġprove": 6760,
      "Ġunret": 6761,
      "cience": 6762,
      "Ġfailing": 6763,
      "Ġeverybody": 6764,
      "Ġrohini": 6765,
      "Ġcontrib": 6766,
      "Ġdownwards": 6767,
      "Ġinculc": 6768,
      "Ġswear": 6769,
      "Ġprith": 6770,
      "Ġsuns": 6771,
      "Ġretire": 6772,
      "abha": 6773,
      "Ġremove": 6774,
      "Ġyourselves": 6775,
      "Ġevidently": 6776,
      "Ġearns": 6777,
      "Ġspeakers": 6778,
      "Ġcareering": 6779,
      "Ġbathe": 6780,
      "Ġundes": 6781,
      "Ġchastisers": 6782,
      "Ġwrongly": 6783,
      "Ġ193": 6784,
      "Ġcensurable": 6785,
      "Ġimage": 6786,
      "brahman": 6787,
      "Ġchoose": 6788,
      "Ġextremely": 6789,
      "Ġordainer": 6790,
      "ourable": 6791,
      "Ġparasara": 6792,
      "hotra": 6793,
      "Ġfacult": 6794,
      "Ġsagara": 6795,
      "Ġaggregate": 6796,
      "ku": 6797,
      "lasting": 6798,
      "nat": 6799,
      "oint": 6800,
      "skin": 6801,
      "yu": 6802,
      "Ġak": 6803,
      "Ġpard": 6804,
      "aswat": 6805,
      "Ġinward": 6806,
      "itor": 6807,
      "rava": 6808,
      "Ġga": 6809,
      "Ġgaya": 6810,
      "Ġrecept": 6811,
      "Ġsush": 6812,
      "ameless": 6813,
      "Ġdemon": 6814,
      "Ġworm": 6815,
      "Ġmanliness": 6816,
      "Ġregained": 6817,
      "Ġvile": 6818,
      "Ġfarew": 6819,
      "Ġruling": 6820,
      "Ġboys": 6821,
      "Ġdevas": 6822,
      "Ġdesireth": 6823,
      "Ġsatanika": 6824,
      "Ġterrit": 6825,
      "Ġrespectable": 6826,
      "atsena": 6827,
      "Ġdistur": 6828,
      "Ġglance": 6829,
      "Ġasking": 6830,
      "Ġfields": 6831,
      "Ġnaturally": 6832,
      "angled": 6833,
      "Ġwaist": 6834,
      "Ġassembla": 6835,
      "Ġlineage": 6836,
      "Ġinjuring": 6837,
      "Ġabstra": 6838,
      "Ġindulg": 6839,
      "Ġsymbol": 6840,
      "Ġmaidens": 6841,
      "Ġliberality": 6842,
      "Ġbrahmacharin": 6843,
      "Ġdreams": 6844,
      "Ġbuilt": 6845,
      "Ġcrops": 6846,
      "vanquished": 6847,
      "Ġdiscovered": 6848,
      "Ġvahuka": 6849,
      "Ġmagadhas": 6850,
      "slay": 6851,
      "Ġcopious": 6852,
      "Ġsmiters": 6853,
      "Ġrenown": 6854,
      "janamejaya": 6855,
      "Ġgloom": 6856,
      "Ġsthanu": 6857,
      "control": 6858,
      "Ġcharacteristics": 6859,
      "vidura": 6860,
      "Ġdownpour": 6861,
      "Ġdisunion": 6862,
      "Ġdespair": 6863,
      "Ġmisunderst": 6864,
      "Ġvichitravirya": 6865,
      "Ġarghya": 6866,
      "atkaru": 6867,
      "Ġfarewell": 6868,
      "bled": 6869,
      "dis": 6870,
      "hyas": 6871,
      "jp": 6872,
      "mas": 6873,
      "mity": 6874,
      "teth": 6875,
      "yo": 6876,
      "Ġod": 6877,
      "Ġsang": 6878,
      "Ġgem": 6879,
      "ids": 6880,
      "Ġtherefrom": 6881,
      "Ġraising": 6882,
      "Ġlikewise": 6883,
      "Ġdesist": 6884,
      "Ġindu": 6885,
      "Ġactual": 6886,
      "Ġperished": 6887,
      "Ġrival": 6888,
      "Ġroads": 6889,
      "Ġclosed": 6890,
      "Ġdevoid": 6891,
      "Ġfloral": 6892,
      "Ġdeliv": 6893,
      "Ġscene": 6894,
      "utely": 6895,
      "bhim": 6896,
      "Ġburst": 6897,
      "Ġmiles": 6898,
      "Ġsarva": 6899,
      "Ġdescending": 6900,
      "Ġrenders": 6901,
      "Ġincreased": 6902,
      "Ġmarched": 6903,
      "Ġmaker": 6904,
      "Ġluminous": 6905,
      "Ġpopulation": 6906,
      "Ġpetals": 6907,
      "Ġinterpret": 6908,
      "Ġconviction": 6909,
      "Ġloosened": 6910,
      "Ġassemblage": 6911,
      "brows": 6912,
      "fire": 6913,
      "jun": 6914,
      "pore": 6915,
      "vol": 6916,
      "Ġaqu": 6917,
      "Ġtel": 6918,
      "Ġpran": 6919,
      "Ġgently": 6920,
      "alf": 6921,
      "avata": 6922,
      "Ġarts": 6923,
      "ivorous": 6924,
      "ifully": 6925,
      "Ġenh": 6926,
      "Ġmantra": 6927,
      "udra": 6928,
      "uddha": 6929,
      "umara": 6930,
      "Ġregul": 6931,
      "Ġactive": 6932,
      "okas": 6933,
      "Ġreserved": 6934,
      "Ġvijaya": 6935,
      "Ġvirochana": 6936,
      "Ġrocks": 6937,
      "Ġpram": 6938,
      "Ġincident": 6939,
      "Ġfeels": 6940,
      "Ġillumin": 6941,
      "atiated": 6942,
      "upala": 6943,
      "Ġbeauteous": 6944,
      "Ġreft": 6945,
      "Ġrespectfully": 6946,
      "arsana": 6947,
      "Ġyours": 6948,
      "Ġdistant": 6949,
      "Ġ37": 6950,
      "Ġadvant": 6951,
      "Ġproduces": 6952,
      "Ġhoriz": 6953,
      "Ġgarments": 6954,
      "Ġurine": 6955,
      "Ġvoc": 6956,
      "Ġrecovered": 6957,
      "Ġhonouring": 6958,
      "Ġbengali": 6959,
      "Ġconclusions": 6960,
      "Ġdetails": 6961,
      "Ġlowest": 6962,
      "Ġperpetrated": 6963,
      "Ġphalguni": 6964,
      "histhira": 6965,
      "Ġmortals": 6966,
      "skins": 6967,
      "Ġkusika": 6968,
      "Ġopposites": 6969,
      "Ġfeeding": 6970,
      "Ġassistance": 6971,
      "Ġstarted": 6972,
      "Ġsubstance": 6973,
      "Ġflashes": 6974,
      "Ġpicture": 6975,
      "Ġinflicted": 6976,
      "Ġproportions": 6977,
      "Ġsaradwat": 6978,
      "Ġagriculture": 6979,
      "Ġmyriads": 6980,
      "?âĢĻ": 6981,
      "hati": 6982,
      "pas": 6983,
      "pointed": 6984,
      "spe": 6985,
      "sight": 6986,
      "tm": 6987,
      "Ġaxes": 6988,
      "Ġought": 6989,
      "Ġhan": 6990,
      "Ġtanks": 6991,
      "Ġdual": 6992,
      "itate": 6993,
      "rama": 6994,
      "Ġgathered": 6995,
      "Ġwithst": 6996,
      "imate": 6997,
      "idya": 6998,
      "Ġshorn": 6999,
      "Ġshaking": 7000,
      "Ġshares": 7001,
      "resp": 7002,
      "geons": 7003,
      "Ġcharge": 7004,
      "Ġchitra": 7005,
      "Ġbhut": 7006,
      "Ġthereon": 7007,
      "Ġherds": 7008,
      "Ġdesert": 7009,
      "ieth": 7010,
      "Ġeverlasting": 7011,
      "Ġperceive": 7012,
      "Ġruru": 7013,
      "Ġcontr": 7014,
      "Ġregardeth": 7015,
      "cellent": 7016,
      "Ġapana": 7017,
      "Ġ31": 7018,
      "Ġinstall": 7019,
      "Ġslee": 7020,
      "Ġresembles": 7021,
      "Ġmahendra": 7022,
      "Ġexplan": 7023,
      "Ġphen": 7024,
      "Ġmastery": 7025,
      "Ġlimb": 7026,
      "Ġlimit": 7027,
      "Ġopposed": 7028,
      "intell": 7029,
      "Ġconquering": 7030,
      "Ġrenounce": 7031,
      "Ġmeasured": 7032,
      "Ġjoining": 7033,
      "Ġbhagiratha": 7034,
      "Ġwrongs": 7035,
      "Ġseparately": 7036,
      "Ġdeserveth": 7037,
      "Ġflows": 7038,
      "Ġedition": 7039,
      "Ġnishadhas": 7040,
      "Ġgrandfather": 7041,
      "Ġconstellations": 7042,
      "Ġexpression": 7043,
      "Ġmendicancy": 7044,
      "Ġprogeny": 7045,
      "Ġinfantry": 7046,
      "Ġmahabharata": 7047,
      "Ġpeacocks": 7048,
      "Ġpravritti": 7049,
      "Ġgutenbergtm": 7050,
      "Ġkaikeyas": 7051,
      "Ġdrenched": 7052,
      "Ġadhyatma": 7053,
      "Ġprobably": 7054,
      "Ġbenedictions": 7055,
      "dhi": 7056,
      "ew": 7057,
      "hita": 7058,
      "nivorous": 7059,
      "oves": 7060,
      "since": 7061,
      "vya": 7062,
      "zen": 7063,
      "inence": 7064,
      "inations": 7065,
      "Ġsis": 7066,
      "Ġsize": 7067,
      "Ġmana": 7068,
      "Ġecho": 7069,
      "Ġlands": 7070,
      "Ġreve": 7071,
      "Ġsair": 7072,
      "Ġdeceived": 7073,
      "Ġdeception": 7074,
      "Ġanir": 7075,
      "Ġate": 7076,
      "Ġthereto": 7077,
      "Ġbravery": 7078,
      "Ġdoer": 7079,
      "indeed": 7080,
      "Ġungu": 7081,
      "Ġunvanquished": 7082,
      "Ġdescript": 7083,
      "igible": 7084,
      "illust": 7085,
      "wny": 7086,
      "Ġafternoon": 7087,
      "Ġdrank": 7088,
      "Ġloved": 7089,
      "Ġgrain": 7090,
      "Ġkinn": 7091,
      "Ġmoves": 7092,
      "icking": 7093,
      "Ġslept": 7094,
      "Ġfellow": 7095,
      "Ġdiscl": 7096,
      "Ġtech": 7097,
      "Ġpasses": 7098,
      "Ġangas": 7099,
      "Ġconfounded": 7100,
      "Ġabandonment": 7101,
      "iketa": 7102,
      "Ġunconscious": 7103,
      "Ġtrip": 7104,
      "excellent": 7105,
      "Ġsaved": 7106,
      "Ġescaped": 7107,
      "Ġnila": 7108,
      "Ġbhagira": 7109,
      "Ġnecessity": 7110,
      "Ġadorations": 7111,
      "Ġlaws": 7112,
      "Ġsummoning": 7113,
      "Ġconcentration": 7114,
      "Ġexterminate": 7115,
      "Ġteaching": 7116,
      "Ġtawny": 7117,
      "Ġexample": 7118,
      "Ġlikest": 7119,
      "hamanyu": 7120,
      "Ġscimitar": 7121,
      "Ġscimitars": 7122,
      "Ġkamvojas": 7123,
      "Ġdiminution": 7124,
      "Ġcrescent": 7125,
      "Ġpardon": 7126,
      "acc": 7127,
      "div": 7128,
      "kes": 7129,
      "nered": 7130,
      "pered": 7131,
      "rona": 7132,
      "reading": 7133,
      "Ġhara": 7134,
      "Ġtur": 7135,
      "Ġtast": 7136,
      "Ġmoney": 7137,
      "itled": 7138,
      "aly": 7139,
      "verted": 7140,
      "Ġshad": 7141,
      "Ġarrog": 7142,
      "utt": 7143,
      "Ġliable": 7144,
      "Ġnote": 7145,
      "apes": 7146,
      "igent": 7147,
      "Ġregaining": 7148,
      "atah": 7149,
      "Ġquiver": 7150,
      "Ġbowstring": 7151,
      "Ġseeketh": 7152,
      "Ġrecom": 7153,
      "ringa": 7154,
      "Ġplat": 7155,
      "Ġobserves": 7156,
      "Ġvictim": 7157,
      "Ġbreasts": 7158,
      "Ġinsight": 7159,
      "Ġextended": 7160,
      "Ġfreely": 7161,
      "hearted": 7162,
      "Ġgranting": 7163,
      "Ġnews": 7164,
      "Ġfinds": 7165,
      "Ġsarm": 7166,
      "Ġliberal": 7167,
      "Ġadoring": 7168,
      "Ġbuild": 7169,
      "Ġtail": 7170,
      "Ġclearly": 7171,
      "Ġcontaining": 7172,
      "Ġmrity": 7173,
      "Ġfuriously": 7174,
      "Ġshores": 7175,
      "Ġposture": 7176,
      "Ġyudhamanyu": 7177,
      "Ġhimalayas": 7178,
      "Ġakshauhin": 7179,
      "Ġcommunicated": 7180,
      "Ġlanguage": 7181,
      "Ġyajnasena": 7182,
      "indhri": 7183,
      "Ġupanish": 7184,
      "Ġphenom": 7185,
      "Ġunguents": 7186,
      "Ġakshauhinis": 7187,
      "fare": 7188,
      "jyot": 7189,
      "sy": 7190,
      "Ġthrong": 7191,
      "Ġaira": 7192,
      "Ġbas": 7193,
      "atam": 7194,
      "Ġtam": 7195,
      "Ġcrest": 7196,
      "Ġmire": 7197,
      "Ġmari": 7198,
      "Ġdare": 7199,
      "Ġgri": 7200,
      "Ġretain": 7201,
      "Ġvaka": 7202,
      "oming": 7203,
      "ential": 7204,
      "Ġstalks": 7205,
      "Ġsevered": 7206,
      "Ġproved": 7207,
      "Ġchoked": 7208,
      "Ġdogs": 7209,
      "astika": 7210,
      "Ġaditi": 7211,
      "Ġcarnivorous": 7212,
      "Ġsloka": 7213,
      "wara": 7214,
      "forth": 7215,
      "Ġrock": 7216,
      "Ġspend": 7217,
      "Ġattitude": 7218,
      "Ġwarm": 7219,
      "Ġwarfare": 7220,
      "Ġdevi": 7221,
      "iksha": 7222,
      "Ġblan": 7223,
      "Ġrecl": 7224,
      "Ġlonging": 7225,
      "Ġvaik": 7226,
      "Ġdepri": 7227,
      "Ġfourteen": 7228,
      "Ġwherever": 7229,
      "Ġinstant": 7230,
      "Ġconstruction": 7231,
      "Ġlastly": 7232,
      "Ġburthen": 7233,
      "Ġtrident": 7234,
      "Ġtemper": 7235,
      "Ġstronger": 7236,
      "Ġsanat": 7237,
      "Ġsyll": 7238,
      "Ġprovoked": 7239,
      "Ġprocreat": 7240,
      "Ġlustre": 7241,
      "Ġcloths": 7242,
      "Ġbestowing": 7243,
      "Ġobstructed": 7244,
      "Ġpreviously": 7245,
      "Ġslightly": 7246,
      "Ġprofession": 7247,
      "Ġrenowned": 7248,
      "Ġdoctrine": 7249,
      "Ġjaratkaru": 7250,
      "Ġdedicated": 7251,
      "Ġrukmin": 7252,
      "Ġchanged": 7253,
      "Ġdissociated": 7254,
      "Ġrenouncing": 7255,
      "Ġuterine": 7256,
      "jpg": 7257,
      "Ġsairindhri": 7258,
      "Ġaniruddha": 7259,
      "illustration": 7260,
      "Ġkinnaras": 7261,
      "Ġmrityu": 7262,
      "!âĢĻ": 7263,
      "16": 7264,
      "called": 7265,
      "fast": 7266,
      "kuru": 7267,
      "nala": 7268,
      "ob": 7269,
      "ook": 7270,
      "path": 7271,
      "rors": 7272,
      "tem": 7273,
      "was": 7274,
      "yama": 7275,
      "Ġsas": 7276,
      "Ġsingly": 7277,
      "reth": 7278,
      "Ġwalls": 7279,
      "Ġhers": 7280,
      "arged": 7281,
      "Ġpity": 7282,
      "Ġpaying": 7283,
      "Ġpaka": 7284,
      "itory": 7285,
      "Ġgay": 7286,
      "Ġgav": 7287,
      "Ġgun": 7288,
      "Ġgates": 7289,
      "Ġnavel": 7290,
      "Ġarg": 7291,
      "ulog": 7292,
      "Ġprocess": 7293,
      "shas": 7294,
      "Ġdiscrimin": 7295,
      "Ġungr": 7296,
      "Ġdeserved": 7297,
      "earing": 7298,
      "Ġability": 7299,
      "Ġwilling": 7300,
      "Ġriches": 7301,
      "riti": 7302,
      "Ġtwinkling": 7303,
      "Ġroam": 7304,
      "Ġroared": 7305,
      "mbals": 7306,
      "Ġspears": 7307,
      "Ġoutside": 7308,
      "Ġregardest": 7309,
      "Ġblud": 7310,
      "Ġsteedless": 7311,
      "Ġrecites": 7312,
      "about": 7313,
      "Ġnarrate": 7314,
      "Ġwoes": 7315,
      "Ġglorious": 7316,
      "Ġlaz": 7317,
      "Ġparties": 7318,
      "Ġcastes": 7319,
      "Ġritual": 7320,
      "bhi": 7321,
      "Ġcurds": 7322,
      "Ġsimplicity": 7323,
      "Ġdriving": 7324,
      "Ġcows": 7325,
      "Ġcrowds": 7326,
      "Ġcontrolled": 7327,
      "Ġreverent": 7328,
      "Ġstayeth": 7329,
      "Ġmetals": 7330,
      "Ġappearing": 7331,
      "edding": 7332,
      "Ġtraining": 7333,
      "Ġexperienced": 7334,
      "Ġmulti": 7335,
      "protect": 7336,
      "Ġundergoing": 7337,
      "Ġguarded": 7338,
      "Ġjumped": 7339,
      "Ġsituation": 7340,
      "Ġyudhisthira": 7341,
      "Ġapparently": 7342,
      "ishtoma": 7343,
      "bannered": 7344,
      "Ġneutral": 7345,
      "Ġdetermined": 7346,
      "Ġtelang": 7347,
      "Ġhorizon": 7348,
      "Ġsarmishtha": 7349,
      "nces": 7350,
      "will": 7351,
      "reya": 7352,
      "Ġtit": 7353,
      "Ġcand": 7354,
      "Ġcord": 7355,
      "itin": 7356,
      "Ġbeareth": 7357,
      "Ġgita": 7358,
      "cepts": 7359,
      "Ġnach": 7360,
      "Ġvol": 7361,
      "Ġult": 7362,
      "Ġshrie": 7363,
      "ainable": 7364,
      "using": 7365,
      "shaped": 7366,
      "umer": 7367,
      "Ġdisapp": 7368,
      "Ġviands": 7369,
      "Ġprag": 7370,
      "Ġbegins": 7371,
      "Ġusage": 7372,
      "Ġpresiding": 7373,
      "Ġcompound": 7374,
      "Ġgrieved": 7375,
      "Ġworshipp": 7376,
      "Ġvaj": 7377,
      "Ġhumbly": 7378,
      "Ġcondu": 7379,
      "Ġconstructed": 7380,
      "Ġwooden": 7381,
      "Ġsatyavan": 7382,
      "Ġsuccessive": 7383,
      "Ġpresently": 7384,
      "Ġexpound": 7385,
      "ffal": 7386,
      "Ġthirteenth": 7387,
      "Ġintercourse": 7388,
      "Ġrefuse": 7389,
      "Ġunac": 7390,
      "Ġsankhyas": 7391,
      "Ġfoundation": 7392,
      "Ġsann": 7393,
      "Ġprovided": 7394,
      "Ġparticularly": 7395,
      "Ġtreatises": 7396,
      "amvara": 7397,
      "Ġembrace": 7398,
      "Ġwithdrawing": 7399,
      "Ġbuffal": 7400,
      "Ġconsiderations": 7401,
      "Ġliked": 7402,
      "brahma": 7403,
      "Ġmendicant": 7404,
      "Ġadversary": 7405,
      "Ġwhirling": 7406,
      "Ġmethods": 7407,
      "Ġattentive": 7408,
      "Ġcymbals": 7409,
      "Ġenlight": 7410,
      "Ġswaha": 7411,
      "Ġanuvinda": 7412,
      "Ġrelationship": 7413,
      "Ġvariety": 7414,
      "Ġtortoise": 7415,
      "Ġbhagirathi": 7416,
      "Ġplatform": 7417,
      "drona": 7418,
      "host": 7419,
      "wild": 7420,
      "Ġthereat": 7421,
      "Ġbased": 7422,
      "Ġbani": 7423,
      "Ġfresh": 7424,
      "itted": 7425,
      "Ġere": 7426,
      "ray": 7427,
      "Ġloses": 7428,
      "room": 7429,
      "Ġshedding": 7430,
      "Ġsuitable": 7431,
      "aks": 7432,
      "Ġdoors": 7433,
      "Ġfoet": 7434,
      "Ġunborn": 7435,
      "Ġendowed": 7436,
      "Ġperceived": 7437,
      "Ġbook": 7438,
      "aketh": 7439,
      "Ġsinking": 7440,
      "Ġowned": 7441,
      "araja": 7442,
      "Ġdevavrata": 7443,
      "Ġprec": 7444,
      "Ġentitled": 7445,
      "Ġsheep": 7446,
      "Ġseemeth": 7447,
      "Ġjoys": 7448,
      "Ġjoyfully": 7449,
      "bhoja": 7450,
      "Ġencounters": 7451,
      "Ġsuffers": 7452,
      "Ġlimits": 7453,
      "Ġsamans": 7454,
      "Ġtrick": 7455,
      "Ġrobbed": 7456,
      "Ġgeneration": 7457,
      "Ġgladdened": 7458,
      "Ġpolished": 7459,
      "Ġsmaller": 7460,
      "adaswa": 7461,
      "Ġnishadas": 7462,
      "Ġhidden": 7463,
      "Ġheedlessness": 7464,
      "Ġgrinding": 7465,
      "Ġtransgression": 7466,
      "Ġchallenged": 7467,
      "Ġsighing": 7468,
      "Ġmessengers": 7469,
      "Ġprostrated": 7470,
      "Ġhunter": 7471,
      "Ġkartikeya": 7472,
      "ology": 7473,
      "Ġakshauhini": 7474,
      "Ġnivritti": 7475,
      "Ġkekayas": 7476,
      "Ġunattainable": 7477,
      "Ġmaghavat": 7478,
      "Ġnegle": 7479,
      "Ġprivate": 7480,
      "Ġperceptions": 7481,
      "Ġinfluenced": 7482,
      "Ġeastern": 7483,
      "Ġhanuman": 7484,
      "Ġexplanation": 7485,
      "Ġungrateful": 7486,
      "give": 7487,
      "jata": 7488,
      "kaurava": 7489,
      "rations": 7490,
      "yuta": 7491,
      "Ġthief": 7492,
      "inst": 7493,
      "Ġsadas": 7494,
      "Ġwro": 7495,
      "Ġhanging": 7496,
      "Ġdress": 7497,
      "Ġdang": 7498,
      "anavata": 7499,
      "itas": 7500,
      "Ġeulog": 7501,
      "Ġlar": 7502,
      "Ġnal": 7503,
      "Ġnur": 7504,
      "Ġrevered": 7505,
      "omin": 7506,
      "Ġdearer": 7507,
      "Ġstore": 7508,
      "ivities": 7509,
      "urity": 7510,
      "Ġnoticed": 7511,
      "Ġenumer": 7512,
      "eli": 7513,
      "Ġunity": 7514,
      "Ġclatter": 7515,
      "Ġclasp": 7516,
      "Ġsubdu": 7517,
      "Ġovergrown": 7518,
      "Ġmercy": 7519,
      "Ġchildhood": 7520,
      "Ġvaranavata": 7521,
      "Ġtelling": 7522,
      "Ġencamp": 7523,
      "Ġwisheth": 7524,
      "Ġrested": 7525,
      "Ġsinging": 7526,
      "Ġspeaks": 7527,
      "Ġspeakest": 7528,
      "Ġminute": 7529,
      "Ġdrew": 7530,
      "Ġavanti": 7531,
      "Ġattaching": 7532,
      "Ġreverend": 7533,
      "Ġhurling": 7534,
      "Ġharmon": 7535,
      "Ġeighteen": 7536,
      "Ġadhering": 7537,
      "ambo": 7538,
      "Ġwitnessing": 7539,
      "Ġdistinctions": 7540,
      "Ġtranscended": 7541,
      "Ġjudge": 7542,
      "Ġrebuk": 7543,
      "Ġtongues": 7544,
      "Ġapplication": 7545,
      "Ġadvancement": 7546,
      "Ġcontained": 7547,
      "Ġsatisfaction": 7548,
      "Ġkiritin": 7549,
      "Ġappertaining": 7550,
      "Ġappropriate": 7551,
      "Ġlabour": 7552,
      "Ġdemerit": 7553,
      "Ġjealousy": 7554,
      "Ġvipula": 7555,
      "Ġpilgrima": 7556,
      "Ġcannibal": 7557,
      "Ġvicinity": 7558,
      "Ġindulgence": 7559,
      "..": 7560,
      "dru": 7561,
      "hat": 7562,
      "prin": 7563,
      "rous": 7564,
      "raratha": 7565,
      "ters": 7566,
      "Ġthie": 7567,
      "inara": 7568,
      "Ġsatiated": 7569,
      "Ġwed": 7570,
      "Ġwav": 7571,
      "Ġward": 7572,
      "ndra": 7573,
      "Ġcaves": 7574,
      "Ġcaught": 7575,
      "aram": 7576,
      "Ġdwaipayana": 7577,
      "Ġpill": 7578,
      "Ġerect": 7579,
      "Ġvand": 7580,
      "Ġvana": 7581,
      "chief": 7582,
      "ayam": 7583,
      "Ġshines": 7584,
      "Ġally": 7585,
      "Ġdetermin": 7586,
      "Ġrall": 7587,
      "Ġraise": 7588,
      "Ġraft": 7589,
      "Ġmankind": 7590,
      "ational": 7591,
      "athom": 7592,
      "Ġadmin": 7593,
      "osen": 7594,
      "Ġunre": 7595,
      "Ġbehalf": 7596,
      "Ġbehoves": 7597,
      "Ġregular": 7598,
      "Ġarticle": 7599,
      "rines": 7600,
      "Ġslays": 7601,
      "Ġcommence": 7602,
      "Ġrefresh": 7603,
      "icked": 7604,
      "Ġassisted": 7605,
      "Ġaskest": 7606,
      "Ġkuntibhoja": 7607,
      "Ġmaketh": 7608,
      "Ġtenth": 7609,
      "Ġcombination": 7610,
      "Ġsolitary": 7611,
      "Ġstudies": 7612,
      "Ġdispute": 7613,
      "oketh": 7614,
      "yasaci": 7615,
      "Ġopened": 7616,
      "Ġsteep": 7617,
      "Ġnails": 7618,
      "Ġrealm": 7619,
      "Ġrenounced": 7620,
      "Ġveget": 7621,
      "Ġsavyasaci": 7622,
      "Ġpropri": 7623,
      "itah": 7624,
      "Ġjanarddana": 7625,
      "Ġpalmy": 7626,
      "Ġtreasure": 7627,
      "Ġsources": 7628,
      "ĠĠĠĠĠĠĠĠ": 7629,
      "Ġsustain": 7630,
      "Ġexhaustion": 7631,
      "Ġchallenge": 7632,
      "Ġsamvarta": 7633,
      "Ġengagement": 7634,
      "Ġpersever": 7635,
      "Ġswallowed": 7636,
      "Ġdeterior": 7637,
      "Ġhimalayan": 7638,
      "Ġkamyaka": 7639,
      "Ġabsorption": 7640,
      "Ġsauv": 7641,
      "Ġpaddy": 7642,
      "Ġprimeval": 7643,
      "Ġcremator": 7644,
      "Ġautumnal": 7645,
      "Ġdiscipline": 7646,
      "poreal": 7647,
      "Ġaquatic": 7648,
      "Ġadvantage": 7649,
      "Ġtechni": 7650,
      "Ġairavata": 7651,
      "Ġrukmini": 7652,
      "iries": 7653,
      "vest": 7654,
      "Ġsree": 7655,
      "Ġhes": 7656,
      "Ġtap": 7657,
      "Ġtale": 7658,
      "Ġinhere": 7659,
      "Ġeg": 7660,
      "Ġbend": 7661,
      "leg": 7662,
      "Ġissue": 7663,
      "Ġvil": 7664,
      "Ġuseless": 7665,
      "Ġira": 7666,
      "Ġsugg": 7667,
      "amau": 7668,
      "akarman": 7669,
      "Ġconv": 7670,
      "Ġconform": 7671,
      "Ġatman": 7672,
      "Ġworth": 7673,
      "Ġworst": 7674,
      "Ġtherein": 7675,
      "ifies": 7676,
      "astic": 7677,
      "Ġdescent": 7678,
      "Ġsprink": 7679,
      "Ġspreading": 7680,
      "Ġabh": 7681,
      "force": 7682,
      "Ġdurvas": 7683,
      "Ġhaste": 7684,
      "Ġblades": 7685,
      "versant": 7686,
      "Ġcompact": 7687,
      "vash": 7688,
      "Ġremote": 7689,
      "Ġimply": 7690,
      "Ġconditions": 7691,
      "Ġparvata": 7692,
      "Ġevidence": 7693,
      "Ġuttamau": 7694,
      "Ġrepeat": 7695,
      "Ġdrive": 7696,
      "Ġsciences": 7697,
      "Ġtrium": 7698,
      "Ġcircles": 7699,
      "Ġneeded": 7700,
      "Ġperiods": 7701,
      "Ġdisappears": 7702,
      "Ġmotive": 7703,
      "Ġcoveted": 7704,
      "Ġphysicians": 7705,
      "Ġmisfortun": 7706,
      "hannala": 7707,
      "Ġliberated": 7708,
      "Ġpurific": 7709,
      "Ġseverest": 7710,
      "Ġedge": 7711,
      "Ġplayed": 7712,
      "Ġimmortals": 7713,
      "Ġdeserted": 7714,
      "Ġvivaswat": 7715,
      "Ġchallenging": 7716,
      "Ġforsaking": 7717,
      "Ġinterests": 7718,
      "Ġhomes": 7719,
      "Ġenhancing": 7720,
      "Ġfloating": 7721,
      "Ġsteadiness": 7722,
      "Ġselected": 7723,
      "destroy": 7724,
      "Ġthoroughly": 7725,
      "Ġhopes": 7726,
      "Ġbreeze": 7727,
      "Ġagnishtoma": 7728,
      "Ġsplit": 7729,
      "Ġthroat": 7730,
      "Ġundeserving": 7731,
      "iri": 7732,
      "ially": 7733,
      "pot": 7734,
      "six": 7735,
      "went": 7736,
      "three": 7737,
      "Ġsata": 7738,
      "Ġwore": 7739,
      "Ġbards": 7740,
      "Ġbambo": 7741,
      "atru": 7742,
      "Ġtry": 7743,
      "ought": 7744,
      "Ġcri": 7745,
      "Ġmur": 7746,
      "Ġditi": 7747,
      "anced": 7748,
      "itudes": 7749,
      "Ġbewild": 7750,
      "Ġlaying": 7751,
      "Ġvinda": 7752,
      "Ġshut": 7753,
      "ander": 7754,
      "Ġdeal": 7755,
      "akha": 7756,
      "Ġconverse": 7757,
      "Ġbhoja": 7758,
      "ilful": 7759,
      "Ġenmity": 7760,
      "laced": 7761,
      "earable": 7762,
      "Ġsoci": 7763,
      "Ġoffence": 7764,
      "Ġtrum": 7765,
      "Ġattending": 7766,
      "Ġblest": 7767,
      "Ġblown": 7768,
      "Ġfearful": 7769,
      "Ġtermin": 7770,
      "ofs": 7771,
      "Ġunderstands": 7772,
      "Ġrestless": 7773,
      "Ġsudarsana": 7774,
      "Ġcalves": 7775,
      "Ġworshipful": 7776,
      "Ġmarrow": 7777,
      "Ġextend": 7778,
      "Ġdazz": 7779,
      "Ġabstains": 7780,
      "Ġaffectionate": 7781,
      "Ġindulged": 7782,
      "Ġrespectively": 7783,
      "ogra": 7784,
      "Ġapplauding": 7785,
      "Ġagitating": 7786,
      "Ġconclave": 7787,
      "Ġretreating": 7788,
      "Ġbranch": 7789,
      "Ġpurifying": 7790,
      "Ġcherishing": 7791,
      "Ġearnest": 7792,
      "Ġvulture": 7793,
      "Ġgreen": 7794,
      "Ġunbearable": 7795,
      "Ġadversity": 7796,
      "Ġconcerns": 7797,
      "Ġwondered": 7798,
      "Ġrepresser": 7799,
      "Ġassuredly": 7800,
      "Ġliquid": 7801,
      "Ġoverpowered": 7802,
      "Ġdelivered": 7803,
      "respond": 7804,
      "Ġnachiketa": 7805,
      "Ġpragjyot": 7806,
      "Ġbanian": 7807,
      "Ġtriumph": 7808,
      ").'\"": 7809,
      "?--": 7810,
      "cles": 7811,
      "eem": 7812,
      "ference": 7813,
      "pid": 7814,
      "well": 7815,
      "ede": 7816,
      "Ġmut": 7817,
      "Ġdand": 7818,
      "rily": 7819,
      "Ġreap": 7820,
      "Ġhealing": 7821,
      "avachas": 7822,
      "otted": 7823,
      "Ġdeem": 7824,
      "Ġalike": 7825,
      "hmanta": 7826,
      "astras": 7827,
      "laid": 7828,
      "Ġunintell": 7829,
      "Ġjamv": 7830,
      "Ġresounding": 7831,
      "Ġcook": 7832,
      "aun": 7833,
      "Ġaccout": 7834,
      "Ġsacrificing": 7835,
      "Ġanyone": 7836,
      "Ġdestined": 7837,
      "Ġbrook": 7838,
      "Ġappoint": 7839,
      "Ġrelations": 7840,
      "Ġscents": 7841,
      "Ġlights": 7842,
      "Ġreputation": 7843,
      "Ġexposed": 7844,
      "withstanding": 7845,
      "Ġvrishap": 7846,
      "Ġdwelleth": 7847,
      "Ġacceptable": 7848,
      "Ġavidya": 7849,
      "acles": 7850,
      "Ġreveren": 7851,
      "Ġhurl": 7852,
      "Ġaston": 7853,
      "Ġgenerated": 7854,
      "Ġshook": 7855,
      "Ġshowering": 7856,
      "Ġrises": 7857,
      "Ġnearly": 7858,
      "Ġlaughter": 7859,
      "Ġunfair": 7860,
      "Ġcherishes": 7861,
      "Ġsuspend": 7862,
      "Ġchandra": 7863,
      "Ġchandramas": 7864,
      "Ġbattles": 7865,
      "Ġwanderings": 7866,
      "Ġflights": 7867,
      "Ġmerely": 7868,
      "Ġconcerned": 7869,
      "Ġunconqu": 7870,
      "Ġoverthrow": 7871,
      "Ġfigure": 7872,
      "Ġpulastya": 7873,
      "Ġcolle": 7874,
      "Ġyavanas": 7875,
      "Ġdevelop": 7876,
      "realization": 7877,
      "Ġinjunctions": 7878,
      "Ġsisupala": 7879,
      "Ġdescription": 7880,
      "Ġdeterioration": 7881,
      "ograph": 7882,
      "10": 7883,
      "35": 7884,
      "der": 7885,
      "ends": 7886,
      "ju": 7887,
      "lim": 7888,
      "neth": 7889,
      "paste": 7890,
      "son": 7891,
      "saying": 7892,
      "tru": 7893,
      "Ġsick": 7894,
      "Ġwright": 7895,
      "ature": 7896,
      "enetra": 7897,
      "ancho": 7898,
      "aneously": 7899,
      "Ġinternal": 7900,
      "itam": 7901,
      "Ġbearest": 7902,
      "Ġlin": 7903,
      "chan": 7904,
      "ldom": 7905,
      "Ġsabha": 7906,
      "amanyu": 7907,
      "Ġseldom": 7908,
      "Ġproph": 7909,
      "Ġchat": 7910,
      "Ġchosen": 7911,
      "Ġensued": 7912,
      "indu": 7913,
      "Ġadam": 7914,
      "Ġaditya": 7915,
      "every": 7916,
      "Ġjaj": 7917,
      "Ġsported": 7918,
      "Ġsoo": 7919,
      "ciate": 7920,
      "Ġactor": 7921,
      "Ġresid": 7922,
      "unuch": 7923,
      "Ġprayed": 7924,
      "Ġpossessor": 7925,
      "Ġloving": 7926,
      "Ġlooketh": 7927,
      "Ġincant": 7928,
      "Ġappre": 7929,
      "Ġheadless": 7930,
      "Ġmerch": 7931,
      "Ġhues": 7932,
      "Ġconsulted": 7933,
      "Ġexcellence": 7934,
      "again": 7935,
      "Ġimpenetra": 7936,
      "Ġinvest": 7937,
      "Ġgrandsires": 7938,
      "Ġaccordance": 7939,
      "Ġcertainty": 7940,
      "Ġevol": 7941,
      "Ġwickedness": 7942,
      "Ġconcourse": 7943,
      "Ġexpiration": 7944,
      "Ġangadas": 7945,
      "Ġwordy": 7946,
      "parous": 7947,
      "Ġcorrespond": 7948,
      "Ġdifferently": 7949,
      "Ġmassive": 7950,
      "Ġinspire": 7951,
      "Ġsecure": 7952,
      "Ġacquisitions": 7953,
      "Ġyields": 7954,
      "Ġkalpa": 7955,
      "Ġconcluded": 7956,
      "Ġsruti": 7957,
      "Ġsrutay": 7958,
      "Ġtreatise": 7959,
      "Ġprevented": 7960,
      "Ġcircumamb": 7961,
      "Ġviswede": 7962,
      "Ġomens": 7963,
      "Ġfutile": 7964,
      "Ġrevive": 7965,
      "Ġsubdue": 7966,
      "Ġespecial": 7967,
      "Ġmandhatri": 7968,
      "Ġoccupied": 7969,
      "arshis": 7970,
      "Ġcorners": 7971,
      "Ġdischarging": 7972,
      "Ġfroth": 7973,
      "Ġcultiv": 7974,
      "Ġextinction": 7975,
      "Ġbrilliant": 7976,
      "Ġgathering": 7977,
      "Ġmeteors": 7978,
      "spread": 7979,
      "Ġeloquent": 7980,
      "Ġschol": 7981,
      "bhima": 7982,
      "Ġworshippers": 7983,
      "ancholy": 7984,
      "Ġjajali": 7985,
      "Ġimpenetrable": 7986,
      ",\"": 7987,
      "44": 7988,
      "bro": 7989,
      "bel": 7990,
      "eg": 7991,
      "fo": 7992,
      "ipped": 7993,
      "pur": 7994,
      "some": 7995,
      "uro": 7996,
      "vis": 7997,
      "Ġ&": 7998,
      "Ġrash": 7999,
      "Ġwreaths": 8000,
      "oned": 8001,
      "ensed": 8002,
      "Ġeunuch": 8003,
      "Ġbees": 8004,
      "Ġisana": 8005,
      "ioned": 8006,
      "ida": 8007,
      "Ġdeaf": 8008,
      "akh": 8009,
      "Ġyatis": 8010,
      "Ġalarmed": 8011,
      "ulate": 8012,
      "Ġnotwithstanding": 8013,
      "she": 8014,
      "iform": 8015,
      "eled": 8016,
      "Ġshoulder": 8017,
      "Ġunworthy": 8018,
      "Ġjat": 8019,
      "Ġregain": 8020,
      "Ġregents": 8021,
      "Ġresound": 8022,
      "Ġoffers": 8023,
      "Ġeveryone": 8024,
      "Ġload": 8025,
      "Ġovercoming": 8026,
      "Ġnecks": 8027,
      "Ġapply": 8028,
      "Ġgrateful": 8029,
      "Ġblade": 8030,
      "Ġpec": 8031,
      "Ġkshem": 8032,
      "Ġcompar": 8033,
      "Ġrefrain": 8034,
      "Ġyoke": 8035,
      "Ġvaried": 8036,
      "Ġpurch": 8037,
      "Ġcouldst": 8038,
      "Ġtaketh": 8039,
      "Ġgandhara": 8040,
      ".\"'": 8041,
      "Ġjoyous": 8042,
      "covered": 8043,
      "Ġexisted": 8044,
      "Ġprospect": 8045,
      "Ġstrict": 8046,
      "Ġsplendid": 8047,
      "Ġvrisha": 8048,
      "Ġrank": 8049,
      "Ġpeaceful": 8050,
      "Ġcareful": 8051,
      "Ġfreeing": 8052,
      "Ġtrade": 8053,
      "Ġbehaved": 8054,
      "Ġrestraint": 8055,
      "Ġforgot": 8056,
      "Ġfortitude": 8057,
      "knowledge": 8058,
      "Ġcrusher": 8059,
      "Ġtearing": 8060,
      "Ġincreasing": 8061,
      "Ġcensured": 8062,
      "Ġviolent": 8063,
      "Ġislands": 8064,
      "Ġtrusted": 8065,
      "Ġmandara": 8066,
      "Ġrejoice": 8067,
      "Ġrejoicing": 8068,
      "Ġmelancholy": 8069,
      "Ġsystems": 8070,
      "Ġprogenitor": 8071,
      "Ġkekaya": 8072,
      "Ġfanned": 8073,
      "Ġaxe": 8074,
      "ongeth": 8075,
      "Ġeternity": 8076,
      "Ġreceptacle": 8077,
      "Ġrecommend": 8078,
      "Ġunacquainted": 8079,
      "Ġdangers": 8080,
      "Ġpropriety": 8081,
      "cons": 8082,
      "cause": 8083,
      "during": 8084,
      "osh": 8085,
      "power": 8086,
      "rast": 8087,
      "sat": 8088,
      "uated": 8089,
      "vement": 8090,
      "your": 8091,
      "Ġahead": 8092,
      "Ġtheory": 8093,
      "Ġcous": 8094,
      "Ġdiksha": 8095,
      "anj": 8096,
      "asy": 8097,
      "Ġinev": 8098,
      "Ġkacha": 8099,
      "Ġni": 8100,
      "Ġvap": 8101,
      "Ġvabh": 8102,
      "stri": 8103,
      "Ġallig": 8104,
      "Ġsel": 8105,
      "Ġchains": 8106,
      "Ġbha": 8107,
      "Ġdisgra": 8108,
      "Ġdistinguish": 8109,
      "Ġunin": 8110,
      "igious": 8111,
      "Ġagreed": 8112,
      "Ġagitation": 8113,
      "Ġwhenever": 8114,
      "Ġresour": 8115,
      "Ġruin": 8116,
      "Ġrolling": 8117,
      "Ġquaff": 8118,
      "Ġowner": 8119,
      "Ġbegun": 8120,
      "Ġmayest": 8121,
      "Ġusinara": 8122,
      "Ġgrains": 8123,
      "Ġconsent": 8124,
      "Ġconsist": 8125,
      "uparna": 8126,
      "Ġrespects": 8127,
      "Ġrespecting": 8128,
      "Ġsmote": 8129,
      "Ġsurv": 8130,
      "Ġpleases": 8131,
      "Ġvowed": 8132,
      "Ġglor": 8133,
      "Ġsudakshina": 8134,
      "Ġdecre": 8135,
      "Ġutterly": 8136,
      "eshna": 8137,
      "Ġcontrolling": 8138,
      "Ġsecl": 8139,
      "Ġgrown": 8140,
      "Ġcompassionate": 8141,
      "Ġlibation": 8142,
      "Ġcapacity": 8143,
      "Ġpolit": 8144,
      "Ġgirls": 8145,
      "conversant": 8146,
      "Ġhardly": 8147,
      "Ġthirsty": 8148,
      "Ġaimed": 8149,
      "Ġrichika": 8150,
      "looking": 8151,
      "Ġfulfil": 8152,
      "Ġdishon": 8153,
      "Ġhunting": 8154,
      "Ġeagerly": 8155,
      "Ġselect": 8156,
      "Ġlifeless": 8157,
      "Ġajatas": 8158,
      "Ġpeacock": 8159,
      "Ġalighted": 8160,
      "Ġexclam": 8161,
      "Ġextinct": 8162,
      "Ġconvey": 8163,
      "Ġrespons": 8164,
      "Ġrecovering": 8165,
      "Ġscruple": 8166,
      "Ġsubsequently": 8167,
      "Ġmelodious": 8168,
      "Ġsorely": 8169,
      "Ġomnipres": 8170,
      "Ġintroduced": 8171,
      "Ġprithu": 8172,
      "Ġsushena": 8173,
      "tempered": 8174,
      "Ġargum": 8175,
      "Ġthieves": 8176,
      "Ġpalmyra": 8177,
      "Ġmisfortune": 8178,
      "Ġcollege": 8179,
      "Ġviswedevas": 8180,
      "bre": 8181,
      "bour": 8182,
      "fty": 8183,
      "hn": 8184,
      "mother": 8185,
      "master": 8186,
      "Ġsqu": 8187,
      "Ġbru": 8188,
      "Ġbill": 8189,
      "once": 8190,
      "Ġtum": 8191,
      "Ġmath": 8192,
      "Ġmitra": 8193,
      "Ġdies": 8194,
      "Ġpow": 8195,
      "Ġlok": 8196,
      "cture": 8197,
      "Ġforced": 8198,
      "Ġallow": 8199,
      "Ġsumitra": 8200,
      "ruva": 8201,
      "Ġyak": 8202,
      "Ġstakes": 8203,
      "ivindhya": 8204,
      "Ġsongs": 8205,
      "Ġatom": 8206,
      "Ġexh": 8207,
      "Ġchap": 8208,
      "Ġchance": 8209,
      "Ġtherese": 8210,
      "Ġcompe": 8211,
      "Ġdozen": 8212,
      "uma": 8213,
      "Ġobeyed": 8214,
      "Ġdesign": 8215,
      "Ġjalas": 8216,
      "Ġsphere": 8217,
      "Ġforesight": 8218,
      "Ġresounded": 8219,
      "Ġruns": 8220,
      "Ġrode": 8221,
      "Ġcontending": 8222,
      "Ġbharg": 8223,
      "please": 8224,
      "Ġunderwent": 8225,
      "Ġbegged": 8226,
      "Ġdevoured": 8227,
      "yasringa": 8228,
      "Ġhastily": 8229,
      "Ġconsisted": 8230,
      "Ġblo": 8231,
      "trained": 8232,
      "Ġrelie": 8233,
      "Ġbetaken": 8234,
      "Ġguile": 8235,
      "Ġskilful": 8236,
      "Ġyourself": 8237,
      "Ġfullest": 8238,
      "Ġdiscont": 8239,
      "Ġenjoyeth": 8240,
      "Ġparaly": 8241,
      "Ġbelongeth": 8242,
      "Ġmahatma": 8243,
      "Ġutterers": 8244,
      "Ġvrihannala": 8245,
      "Ġcounted": 8246,
      "Ġassemblies": 8247,
      "Ġdried": 8248,
      "Ġaware": 8249,
      "Ġnaim": 8250,
      "Ġsankha": 8251,
      "going": 8252,
      "Ġrelative": 8253,
      "Ġpenetrate": 8254,
      "Ġlovely": 8255,
      "Ġtreatment": 8256,
      "Ġdushmanta": 8257,
      "Ġapsara": 8258,
      "Ġfisher": 8259,
      "Ġdespatch": 8260,
      "Ġeduc": 8261,
      "Ġpraiseworthy": 8262,
      "Ġteacher": 8263,
      "Ġcurrents": 8264,
      "Ġblows": 8265,
      "Ġheedless": 8266,
      "Ġreferring": 8267,
      "Ġintentions": 8268,
      "Ġenhancer": 8269,
      "Ġpervading": 8270,
      "Ġassociation": 8271,
      "Ġgarden": 8272,
      "Ġinstrumental": 8273,
      "Ġreckless": 8274,
      "Ġpupils": 8275,
      "Ġinitiation": 8276,
      "Ġomniscient": 8277,
      "Ġdegree": 8278,
      "Ġthrice": 8279,
      "Ġkosala": 8280,
      "Ġscientific": 8281,
      "Ġabsolute": 8282,
      "Ġinfamy": 8283,
      "Ġupanishads": 8284,
      "Ġpilgrimage": 8285,
      "Ġperseverance": 8286,
      "Ġdazzling": 8287,
      "Ġselves": 8288,
      "bor": 8289,
      "both": 8290,
      "da": 8291,
      "ded": 8292,
      "fif": 8293,
      "oe": 8294,
      "pire": 8295,
      "rana": 8296,
      "tw": 8297,
      "yak": 8298,
      "Ġthreat": 8299,
      "Ġathe": 8300,
      "Ġawa": 8301,
      "Ġsort": 8302,
      "Ġsorts": 8303,
      "Ġwins": 8304,
      "Ġhut": 8305,
      "Ġfences": 8306,
      "Ġtrita": 8307,
      "anse": 8308,
      "Ġtos": 8309,
      "Ġgame": 8310,
      "Ġgets": 8311,
      "cel": 8312,
      "leth": 8313,
      "Ġura": 8314,
      "strings": 8315,
      "Ġsama": 8316,
      "Ġsaivya": 8317,
      "Ġya": 8318,
      "Ġange": 8319,
      "Ġatm": 8320,
      "oused": 8321,
      "ersed": 8322,
      "blem": 8323,
      "geta": 8324,
      "Ġexec": 8325,
      "Ġraj": 8326,
      "Ġragh": 8327,
      "Ġadm": 8328,
      "lace": 8329,
      "cking": 8330,
      "ledged": 8331,
      "Ġslokas": 8332,
      "Ġriven": 8333,
      "Ġride": 8334,
      "Ġdharm": 8335,
      "Ġaccents": 8336,
      "orned": 8337,
      "Ġprabhas": 8338,
      "Ġclash": 8339,
      "Ġflood": 8340,
      "Ġmerc": 8341,
      "Ġwealthy": 8342,
      "off": 8343,
      "ables": 8344,
      "Ġsmite": 8345,
      "Ġsurve": 8346,
      "Ġpractises": 8347,
      "Ġnarrow": 8348,
      "Ġ38": 8349,
      "Ġlac": 8350,
      "Ġolden": 8351,
      "Ġrituparna": 8352,
      "Ġsudhan": 8353,
      "angas": 8354,
      "Ġwail": 8355,
      "Ġvirtuously": 8356,
      "Ġexpanse": 8357,
      "Ġpiteous": 8358,
      "Ġsupposed": 8359,
      "Ġconfused": 8360,
      "Ġranger": 8361,
      "Ġgarment": 8362,
      "Ġsolid": 8363,
      "Ġawaken": 8364,
      "Ġabstained": 8365,
      "Ġcounc": 8366,
      "Ġurge": 8367,
      "Ġsharpness": 8368,
      "Ġburns": 8369,
      "asht": 8370,
      "Ġvegeta": 8371,
      "Ġexertions": 8372,
      "Ġrainy": 8373,
      "Ġhistories": 8374,
      "Ġprocrast": 8375,
      "Ġunderstandings": 8376,
      "Ġunrighteously": 8377,
      "Ġrevived": 8378,
      "Ġrouting": 8379,
      "Ġobligation": 8380,
      "Ġmildness": 8381,
      "Ġcontempt": 8382,
      "Ġmaintained": 8383,
      "Ġkumara": 8384,
      "Ġbaladeva": 8385,
      "Ġandhaka": 8386,
      "Ġwritten": 8387,
      "Ġsteadfast": 8388,
      "Ġjaws": 8389,
      "Ġrecitations": 8390,
      "Ġcryst": 8391,
      "Ġpictures": 8392,
      "Ġremarked": 8393,
      "Ġalighting": 8394,
      "Ġmedicine": 8395,
      "Ġmlecch": 8396,
      "Ġaccession": 8397,
      "Ġdevouring": 8398,
      "Ġimpressions": 8399,
      "Ġwolves": 8400,
      "Ġmanifested": 8401,
      "Ġquarrels": 8402,
      "Ġfaculties": 8403,
      "Ġtrickling": 8404,
      "Ġcrematorium": 8405,
      "destroying": 8406,
      "Ġajatasatru": 8407,
      "Ġjalasandha": 8408,
      "Ġvegetables": 8409,
      "eter": 8410,
      "hast": 8411,
      "ict": 8412,
      "ipa": 8413,
      "over": 8414,
      "uity": 8415,
      "vara": 8416,
      "Ġaven": 8417,
      "Ġwrest": 8418,
      "Ġbott": 8419,
      "isions": 8420,
      "enc": 8421,
      "Ġtu": 8422,
      "Ġtalking": 8423,
      "Ġmok": 8424,
      "Ġmission": 8425,
      "Ġple": 8426,
      "Ġpara": 8427,
      "asc": 8428,
      "itious": 8429,
      "Ġether": 8430,
      "Ġeve": 8431,
      "Ġgor": 8432,
      "Ġkul": 8433,
      "Ġvam": 8434,
      "Ġshaken": 8435,
      "ivat": 8436,
      "iveness": 8437,
      "Ġweal": 8438,
      "Ġraging": 8439,
      "Ġfold": 8440,
      "Ġobsequ": 8441,
      "Ġunseen": 8442,
      "Ġjavel": 8443,
      "Ġpandya": 8444,
      "okes": 8445,
      "Ġpermit": 8446,
      "Ġpraya": 8447,
      "Ġdestructible": 8448,
      "Ġlevel": 8449,
      "Ġlofty": 8450,
      "Ġsubstances": 8451,
      "Ġillusions": 8452,
      "Ġmounting": 8453,
      "Ġdeluded": 8454,
      "Ġplates": 8455,
      "Ġrespectful": 8456,
      "Ġobsc": 8457,
      "Ġtransg": 8458,
      "Ġparro": 8459,
      "preh": 8460,
      "Ġexpounded": 8461,
      "Ġexpanded": 8462,
      "Ġstriving": 8463,
      "Ġfirmness": 8464,
      "Ġbenevol": 8465,
      "Ġurging": 8466,
      "Ġtried": 8467,
      "Ġrobber": 8468,
      "Ġmodern": 8469,
      "Ġdispeller": 8470,
      "sacrificial": 8471,
      "Ġrememb": 8472,
      "Ġesteem": 8473,
      "Ġhyp": 8474,
      "Ġidentified": 8475,
      "Ġretreated": 8476,
      "Ġyoungest": 8477,
      "Ġsubjugator": 8478,
      "Ġestablish": 8479,
      "Ġerrone": 8480,
      "Ġwanting": 8481,
      "Ġyadus": 8482,
      "Ġsufferings": 8483,
      "Ġfemales": 8484,
      "Ġswayamvara": 8485,
      "untala": 8486,
      "Ġsolicitous": 8487,
      "Ġexamination": 8488,
      "Ġinactive": 8489,
      "Ġfleetness": 8490,
      "Ġapprehension": 8491,
      "Ġsamvara": 8492,
      "Ġlapis": 8493,
      "Ġenhanced": 8494,
      "slain": 8495,
      "Ġcomprehend": 8496,
      "Ġtroubled": 8497,
      "ological": 8498,
      "Ġabsorbed": 8499,
      "Ġyavak": 8500,
      "Ġpupil": 8501,
      "Ġtotal": 8502,
      "Ġgreeted": 8503,
      "Ġluxury": 8504,
      "Ġpermanent": 8505,
      "advala": 8506,
      "Ġdepths": 8507,
      "Ġcontrary": 8508,
      "Ġshadow": 8509,
      "Ġlazuli": 8510,
      "Ġvandin": 8511,
      "Ġsteeped": 8512,
      "Ġdurvasa": 8513,
      "bits": 8514,
      "fth": 8515,
      "ients": 8516,
      "jn": 8517,
      "mn": 8518,
      "ses": 8519,
      "theless": 8520,
      "inc": 8521,
      "Ġball": 8522,
      "Ġbade": 8523,
      "Ġbarks": 8524,
      "Ġfals": 8525,
      "Ġtend": 8526,
      "asya": 8527,
      "Ġeuro": 8528,
      "Ġknot": 8529,
      "Ġheated": 8530,
      "adar": 8531,
      "Ġasita": 8532,
      "Ġsamb": 8533,
      "Ġsuras": 8534,
      "reating": 8535,
      "Ġsending": 8536,
      "Ġweigh": 8537,
      "irest": 8538,
      "Ġexch": 8539,
      "Ġrags": 8540,
      "Ġadi": 8541,
      "Ġadequ": 8542,
      "Ġunequ": 8543,
      "earth": 8544,
      "Ġbehest": 8545,
      "Ġagony": 8546,
      "reets": 8547,
      "Ġending": 8548,
      "Ġleop": 8549,
      "ervest": 8550,
      "Ġperformer": 8551,
      "Ġrecount": 8552,
      "Ġpluck": 8553,
      "Ġfrust": 8554,
      "Ġafflictions": 8555,
      "ixt": 8556,
      "ankara": 8557,
      "Ġdepos": 8558,
      "Ġapprove": 8559,
      "Ġnumbered": 8560,
      "Ġkindly": 8561,
      "Ġdoubtful": 8562,
      "Ġvaladeva": 8563,
      "Ġemper": 8564,
      "Ġceases": 8565,
      "before": 8566,
      "Ġsinfulness": 8567,
      "together": 8568,
      "Ġinjuries": 8569,
      "Ġdisputes": 8570,
      "ronic": 8571,
      "Ġprofound": 8572,
      "Ġbelonged": 8573,
      "Ġsweat": 8574,
      "Ġentirety": 8575,
      "Ġsweetly": 8576,
      "Ġsteel": 8577,
      "Ġpropens": 8578,
      "Ġrequired": 8579,
      "Ġenquiries": 8580,
      "Ġcheerlessness": 8581,
      "guru": 8582,
      "Ġfasting": 8583,
      "Ġarrive": 8584,
      "Ġ192": 8585,
      "ĠĠĠĠĠĠ": 8586,
      "Ġafford": 8587,
      "Ġindividuals": 8588,
      "Ġprati": 8589,
      "Ġbelieved": 8590,
      "Ġmultitude": 8591,
      "Ġmillion": 8592,
      "Ġdefinite": 8593,
      "Ġchoice": 8594,
      "Ġsurprise": 8595,
      "Ġudana": 8596,
      "Ġdisappearance": 8597,
      "Ġproclaimed": 8598,
      "Ġcamels": 8599,
      "Ġsutasoma": 8600,
      "Ġdiscourses": 8601,
      "Ġbrass": 8602,
      "Ġbuffaloes": 8603,
      "hostile": 8604,
      "Ġtechnique": 8605,
      "Ġaccoutred": 8606,
      "Ġuragas": 8607,
      "Ġsudhanwan": 8608,
      "fact": 8609,
      "great": 8610,
      "pand": 8611,
      "pled": 8612,
      "test": 8613,
      "time": 8614,
      "wipa": 8615,
      "Ġ,": 8616,
      "Ġsor": 8617,
      "encing": 8618,
      "Ġdav": 8619,
      "Ġdying": 8620,
      "Ġpy": 8621,
      "Ġinanim": 8622,
      "celets": 8623,
      "Ġny": 8624,
      "Ġreceives": 8625,
      "Ġheir": 8626,
      "imat": 8627,
      "verty": 8628,
      "Ġallotted": 8629,
      "Ġstrings": 8630,
      "Ġstreets": 8631,
      "Ġalarm": 8632,
      "ules": 8633,
      "Ġbhadra": 8634,
      "Ġrapid": 8635,
      "Ġbrag": 8636,
      "Ġdissu": 8637,
      "elcome": 8638,
      "athya": 8639,
      "osal": 8640,
      "Ġunex": 8641,
      "Ġcarri": 8642,
      "Ġslough": 8643,
      "Ġintense": 8644,
      "mah": 8645,
      "Ġcoo": 8646,
      "Ġaccost": 8647,
      "Ġrishyasringa": 8648,
      "Ġgracious": 8649,
      "Ġflour": 8650,
      "Ġhears": 8651,
      "Ġenergies": 8652,
      "Ġheavily": 8653,
      "ilyas": 8654,
      "Ġpoverty": 8655,
      "arka": 8656,
      "Ġguhy": 8657,
      "Ġasses": 8658,
      "ntially": 8659,
      "Ġsuperv": 8660,
      "lause": 8661,
      "Ġsixteenth": 8662,
      "Ġcountenance": 8663,
      "Ġkeeps": 8664,
      "Ġranging": 8665,
      "Ġstudying": 8666,
      "Ġturns": 8667,
      "neya": 8668,
      "Ġsamana": 8669,
      "Ġconsumeth": 8670,
      "knowing": 8671,
      "Ġequipt": 8672,
      "Ġremembered": 8673,
      "Ġcircumst": 8674,
      "Ġfairly": 8675,
      "Ġsubjugate": 8676,
      "Ġsubjugating": 8677,
      "Ġtwelfth": 8678,
      "Ġessences": 8679,
      "riders": 8680,
      "Ġaffright": 8681,
      "lock": 8682,
      "Ġoccupation": 8683,
      "Ġcomforting": 8684,
      "Ġflowering": 8685,
      "Ġforbear": 8686,
      "Ġcosmos": 8687,
      "Ġprativindhya": 8688,
      "Ġdirectly": 8689,
      "Ġshields": 8690,
      "Ġradiant": 8691,
      "Ġcustoms": 8692,
      "Ġefficacious": 8693,
      "Ġoverthrown": 8694,
      "Ġunchange": 8695,
      "Ġarund": 8696,
      "Ġmlech": 8697,
      "Ġpronounced": 8698,
      "Ġomniscience": 8699,
      "Ġillumined": 8700,
      "Ġfixing": 8701,
      "Ġritwik": 8702,
      "Ġbinding": 8703,
      "Ġsanctioned": 8704,
      "Ġsojourn": 8705,
      "Ġterritories": 8706,
      "Ġmarichi": 8707,
      "Ġblankets": 8708,
      "Ġiravat": 8709,
      "Ġnaimisha": 8710,
      "Ġmlecchas": 8711,
      "Ġeurope": 8712,
      "Ġinanimate": 8713,
      "col": 8714,
      "gest": 8715,
      "hill": 8716,
      "lived": 8717,
      "mali": 8718,
      "ton": 8719,
      "tow": 8720,
      "vir": 8721,
      "yayati": 8722,
      "Ġ-": 8723,
      "than": 8724,
      "Ġoath": 8725,
      "inous": 8726,
      "Ġsara": 8727,
      "rets": 8728,
      "isant": 8729,
      "Ġfalg": 8730,
      "Ġtent": 8731,
      "Ġmong": 8732,
      "Ġdil": 8733,
      "Ġdyed": 8734,
      "Ġinflict": 8735,
      "Ġbetra": 8736,
      "Ġgest": 8737,
      "Ġgivers": 8738,
      "roach": 8739,
      "Ġvall": 8740,
      "avad": 8741,
      "Ġalliance": 8742,
      "oda": 8743,
      "amo": 8744,
      "Ġstage": 8745,
      "Ġatoms": 8746,
      "Ġproof": 8747,
      "Ġwet": 8748,
      "Ġwaste": 8749,
      "Ġexpected": 8750,
      "Ġchedi": 8751,
      "etic": 8752,
      "Ġacross": 8753,
      "Ġdeservest": 8754,
      "Ġindign": 8755,
      "Ġspacious": 8756,
      "igish": 8757,
      "Ġnoose": 8758,
      "Ġcreative": 8759,
      "Ġroll": 8760,
      "Ġsacrific": 8761,
      "Ġcontriv": 8762,
      "Ġloins": 8763,
      "Ġcliff": 8764,
      "urned": 8765,
      "izing": 8766,
      "Ġremo": 8767,
      "Ġremed": 8768,
      "Ġassert": 8769,
      "resses": 8770,
      "ressible": 8771,
      "Ġgivest": 8772,
      "Ġdestroyeth": 8773,
      "Ġsleeps": 8774,
      "Ġgloss": 8775,
      "Ġanimosity": 8776,
      "Ġearl": 8777,
      "Ġbread": 8778,
      "Ġeminent": 8779,
      "Ġmidday": 8780,
      "Ġexpans": 8781,
      "Ġproduction": 8782,
      "Ġsimult": 8783,
      "Ġemancipate": 8784,
      "Ġkauravya": 8785,
      "acquainted": 8786,
      "Ġsilk": 8787,
      "Ġreverentially": 8788,
      "Ġaffectionately": 8789,
      "Ġmilitary": 8790,
      "Ġbese": 8791,
      "Ġmodifications": 8792,
      "Ġmoments": 8793,
      "Ġhairs": 8794,
      "Ġgladly": 8795,
      "Ġkashm": 8796,
      "Ġindulges": 8797,
      "Ġsarv": 8798,
      "Ġirrep": 8799,
      "Ġpalat": 8800,
      "Ġfalsely": 8801,
      "Ġseparation": 8802,
      "Ġviolently": 8803,
      "Ġcounsellor": 8804,
      "rical": 8805,
      "Ġimportant": 8806,
      "Ġwedding": 8807,
      "grand": 8808,
      "Ġtransgressing": 8809,
      "Ġimages": 8810,
      "Ġvahl": 8811,
      "Ġuntrue": 8812,
      "Ġvrihadvala": 8813,
      "Ġpratard": 8814,
      "Ġflags": 8815,
      "Ġdishev": 8816,
      "Ġmadrakas": 8817,
      "Ġattacking": 8818,
      "Ġconsultation": 8819,
      "Ġtemptation": 8820,
      "Ġpundits": 8821,
      "Ġpeaks": 8822,
      "Ġofficiate": 8823,
      "Ġcrowded": 8824,
      "Ġundertaken": 8825,
      "amongst": 8826,
      "Ġunmoved": 8827,
      "Ġegoism": 8828,
      "Ġfilth": 8829,
      "Ġsuccum": 8830,
      "Ġunretreating": 8831,
      "Ġenhance": 8832,
      "Ġtastes": 8833,
      "Ġdetermination": 8834,
      "Ġsociety": 8835,
      "Ġdisgrace": 8836,
      "fifth": 8837,
      "Ġraghu": 8838,
      "Ġprabhasa": 8839,
      "Ġunchangeable": 8840,
      "towards": 8841,
      "Ġdishevelled": 8842,
      "11": 8843,
      "bo": 8844,
      "car": 8845,
      "cod": 8846,
      "fts": 8847,
      "iqu": 8848,
      "light": 8849,
      "oose": 8850,
      "obs": 8851,
      "urious": 8852,
      "Ġtheft": 8853,
      "reement": 8854,
      "Ġcess": 8855,
      "Ġmir": 8856,
      "Ġpull": 8857,
      "itch": 8858,
      "Ġegg": 8859,
      "Ġkadru": 8860,
      "charged": 8861,
      "irm": 8862,
      "imately": 8863,
      "Ġshameless": 8864,
      "andh": 8865,
      "Ġarran": 8866,
      "Ġstir": 8867,
      "Ġsong": 8868,
      "aph": 8869,
      "Ġrained": 8870,
      "Ġbracelets": 8871,
      "Ġunfortun": 8872,
      "Ġabdu": 8873,
      "Ġvira": 8874,
      "Ġfacing": 8875,
      "perv": 8876,
      "Ġbond": 8877,
      "ossess": 8878,
      "Ġdhatri": 8879,
      "Ġimplied": 8880,
      "Ġimitate": 8881,
      "Ġprabhadra": 8882,
      "Ġpossesses": 8883,
      "Ġgoats": 8884,
      "Ġacquaint": 8885,
      "Ġdeathless": 8886,
      "Ġcompare": 8887,
      "Ġdividing": 8888,
      "Ġassurance": 8889,
      "Ġsurre": 8890,
      "Ġscre": 8891,
      "dev": 8892,
      "Ġwombs": 8893,
      "Ġhooks": 8894,
      "Ġtransfer": 8895,
      "Ġdiscom": 8896,
      "Ġlaud": 8897,
      "Ġequality": 8898,
      "Ġsuccession": 8899,
      "Ġstricken": 8900,
      "Ġvidy": 8901,
      "bhishana": 8902,
      "Ġutterance": 8903,
      "Ġcharitable": 8904,
      "Ġagnihotra": 8905,
      "Ġridden": 8906,
      "Ġnewly": 8907,
      "Ġeighty": 8908,
      "Ġsecured": 8909,
      "Ġviews": 8910,
      "Ġenquiry": 8911,
      "Ġprocured": 8912,
      "Ġpunished": 8913,
      "Ġclosely": 8914,
      "Ġnishada": 8915,
      "Ġshrouding": 8916,
      "Ġsearching": 8917,
      "Ġblowing": 8918,
      "Ġfunction": 8919,
      "Ġhabitation": 8920,
      "Ġsolemn": 8921,
      "Ġflowery": 8922,
      "Ġudd": 8923,
      "Ġbeaten": 8924,
      "Ġmingling": 8925,
      "Ġpervaded": 8926,
      "Ġcopy": 8927,
      "Ġsteadily": 8928,
      "Ġassociated": 8929,
[...]
